{
  "version": "1.0",
  "truncation": null,
  "padding": null,
  "added_tokens": [
    {
      "id": 0,
      "content": "<|endoftext|>",
      "single_word": false,
      "lstrip": false,
      "rstrip": false,
      "normalized": false,
      "special": true
    },
    {
      "id": 1,
      "content": "<unk>",
      "single_word": false,
      "lstrip": false,
      "rstrip": false,
      "normalized": false,
      "special": true
    }
  ],
  "normalizer": null,
  "pre_tokenizer": {
    "type": "ByteLevel",
    "add_prefix_space": false,
    "trim_offsets": true,
    "use_regex": true
  },
  "post_processor": {
    "type": "ByteLevel",
    "add_prefix_space": true,
    "trim_offsets": false,
    "use_regex": true
  },
  "decoder": {
    "type": "ByteLevel",
    "add_prefix_space": true,
    "trim_offsets": true,
    "use_regex": true
  },
  "model": {
    "type": "BPE",
    "dropout": null,
    "unk_token": null,
    "continuing_subword_prefix": null,
    "end_of_word_suffix": null,
    "fuse_unk": false,
    "byte_fallback": false,
    "vocab": {
      "<|endoftext|>": 0,
      "<unk>": 1,
      "=": 2,
      "{": 3,
      "}": 4,
      "¡": 5,
      "¢": 6,
      "£": 7,
      "¤": 8,
      "¥": 9,
      "¦": 10,
      "§": 11,
      "¨": 12,
      "©": 13,
      "ª": 14,
      "«": 15,
      "¬": 16,
      "®": 17,
      "¯": 18,
      "°": 19,
      "±": 20,
      "²": 21,
      "³": 22,
      "´": 23,
      "µ": 24,
      "¶": 25,
      "·": 26,
      "¸": 27,
      "¹": 28,
      "º": 29,
      "»": 30,
      "¼": 31,
      "½": 32,
      "¾": 33,
      "¿": 34,
      "â": 35,
      "ã": 36,
      "ä": 37,
      "å": 38,
      "æ": 39,
      "ç": 40,
      "è": 41,
      "é": 42,
      "î": 43,
      "ï": 44,
      "ð": 45,
      "Ģ": 46,
      "ģ": 47,
      "Ĥ": 48,
      "ĥ": 49,
      "Ħ": 50,
      "ħ": 51,
      "Ĩ": 52,
      "ĩ": 53,
      "Ī": 54,
      "ī": 55,
      "Ĭ": 56,
      "ĭ": 57,
      "Į": 58,
      "į": 59,
      "İ": 60,
      "ı": 61,
      "Ĳ": 62,
      "ĳ": 63,
      "Ĵ": 64,
      "ĵ": 65,
      "Ķ": 66,
      "ķ": 67,
      "ĸ": 68,
      "Ĺ": 69,
      "ĺ": 70,
      "Ļ": 71,
      "ļ": 72,
      "Ľ": 73,
      "ľ": 74,
      "Ŀ": 75,
      "ŀ": 76,
      "Ł": 77,
      "ł": 78,
      "Ń": 79,
      "ï¼": 80,
      "ï¼Į": 81,
      "ãĢ": 82,
      "ãĢĤ": 83,
      "ä¸": 84,
      "æľ": 85,
      "äº": 86,
      "å¤": 87,
      "åħ": 88,
      "éĽ": 89,
      "å¾": 90,
      "åĲ": 91,
      "æŃ": 92,
      "æĺ": 93,
      "å®": 94,
      "åı": 95,
      "ä¸į": 96,
      "éģ": 97,
      "åį": 98,
      "ä½": 99,
      "ä»": 100,
      "å±": 101,
      "å¹": 102,
      "çĦ": 103,
      "å°": 104,
      "æĸ": 105,
      "åľ": 106,
      "æĪ": 107,
      "èĩ": 108,
      "çĽ": 109,
      "äºº": 110,
      "æĻ": 111,
      "éĸ": 112,
      "èĪ": 113,
      "ä¹": 114,
      "å¿": 115,
      "ä¸Ģ": 116,
      "æĹ": 117,
      "ä¾": 118,
      "å¯": 119,
      "çĶ": 120,
      "åŃ": 121,
      "æ°": 122,
      "æĽ": 123,
      "¢¨": 124,
      "å·": 125,
      "çĦ¡": 126,
      "éĩ": 127,
      "çĪ": 128,
      "èĢ": 129,
      "æľī": 130,
      "é¢¨": 131,
      "çŁ": 132,
      "è¡": 133,
      "åĪ": 134,
      "éĿ": 135,
      "è¦": 136,
      "å¦": 137,
      "éĢ": 138,
      "èģ": 139,
      "éĻ": 140,
      "å±±": 141,
      "æµ": 142,
      "èª": 143,
      "çĻ": 144,
      "æ¸": 145,
      "èĬ": 146,
      "æĿ": 147,
      "çķ": 148,
      "æĦ": 149,
      "å¤©": 150,
      "çľ": 151,
      "éł": 152,
      "ä¾Ĩ": 153,
      "ç´": 154,
      "æī": 155,
      "ä½ķ": 156,
      "æķ": 157,
      "æĻĤ": 158,
      "æ±": 159,
      "æ·": 160,
      "å¦Ĥ": 161,
      "èĲ": 162,
      "åĭ": 163,
      "å¥": 164,
      "æĹ¥": 165,
      "èĩª": 166,
      "åĩ": 167,
      "çĪ²": 168,
      "å¸": 169,
      "ç§": 170,
      "åĽ": 171,
      "æ¨": 172,
      "èĻ": 173,
      "ä¸Ń": 174,
      "ç«": 175,
      "çī": 176,
      "éĽ²": 177,
      "ç¾": 178,
      "è©": 179,
      "é¦": 180,
      "æ³": 181,
      "æĥ": 182,
      "éļ": 183,
      "èĬ±": 184,
      "çĶŁ": 185,
      "è¨": 186,
      "éľ": 187,
      "æŃ¤": 188,
      "é«": 189,
      "ç¥": 190,
      "åİ": 191,
      "éĤ": 192,
      "é£": 193,
      "ç©": 194,
      "å£": 195,
      "å¾Ĺ": 196,
      "æĺ¥": 197,
      "çŁ¥": 198,
      "æĪĳ": 199,
      "ç¿": 200,
      "è³": 201,
      "çİ": 202,
      "ä¼": 203,
      "æĢ": 204,
      "åı¯": 205,
      "çµ": 206,
      "æ¸ħ": 207,
      "å¿ĥ": 208,
      "å¹´": 209,
      "ä¿": 210,
      "æ¬": 211,
      "èĭ": 212,
      "ä¸Ĭ": 213,
      "æ²": 214,
      "æŀ": 215,
      "åī": 216,
      "è¿": 217,
      "çĽ¸": 218,
      "è¼": 219,
      "æ°´": 220,
      "ä¹ĭ": 221,
      "æľĪ": 222,
      "è±": 223,
      "åº": 224,
      "åĨ": 225,
      "ç¶": 226,
      "åĬ": 227,
      "äºĭ": 228,
      "æľª": 229,
      "åŃĲ": 230,
      "èĥ": 231,
      "éħ": 232,
      "è¦ĭ": 233,
      "åĲĽ": 234,
      "è²": 235,
      "åł": 236,
      "åĤ": 237,
      "æģ": 238,
      "æ¼": 239,
      "æĺ¯": 240,
      "åľ¨": 241,
      "æĩ": 242,
      "é¡": 243,
      "èĪĩ": 244,
      "å½": 245,
      "é»": 246,
      "èį": 247,
      "ä¸ĭ": 248,
      "èĢģ": 249,
      "è¡Į": 250,
      "èī": 251,
      "æĺİ": 252,
      "æŃ¸": 253,
      "é«ĺ": 254,
      "å¡": 255,
      "ä¸ī": 256,
      "ä»Ĭ": 257,
      "æ»": 258,
      "ç§ĭ": 259,
      "èĲ¬": 260,
      "æļ": 261,
      "æħ": 262,
      "æĨ": 263,
      "åı¤": 264,
      "éĽ¨": 265,
      "ķ·": 266,
      "åİ»": 267,
      "éķ·": 268,
      "å¼": 269,
      "è¶": 270,
      "åĮ": 271,
      "æİ": 272,
      "å·²": 273,
      "çĻ½": 274,
      "åŁ": 275,
      "åħ¶": 276,
      "åĸ": 277,
      "ä»¥": 278,
      "æ±Ł": 279,
      "è©©": 280,
      "æĤ": 281,
      "åĳ": 282,
      "åįĥ": 283,
      "ç¬": 284,
      "è¥": 285,
      "çĸ": 286,
      "èº": 287,
      "ç¨": 288,
      "è«": 289,
      "ç¦": 290,
      "èµ": 291,
      "æĪĲ": 292,
      "è¬": 293,
      "æĶ": 294,
      "æ´": 295,
      "çª": 296,
      "æīĢ": 297,
      "èª°": 298,
      "é³": 299,
      "åĩº": 300,
      "æĬ": 301,
      "å¤ļ": 302,
      "è»": 303,
      "éģĵ": 304,
      "åĢ": 305,
      "åīį": 306,
      "è§": 307,
      "äº¦": 308,
      "åħ¬": 309,
      "æ¥": 310,
      "ç©º": 311,
      "èĳ": 312,
      "æĦı": 313,
      "çį": 314,
      "å¤§": 315,
      "ä¸ĸ": 316,
      "èģ²": 317,
      "æĭ": 318,
      "å¯Ĵ": 319,
      "å®¶": 320,
      "åľ°": 321,
      "å»": 322,
      "é¤": 323,
      "çĮ": 324,
      "éĨ": 325,
      "çĦ¶": 326,
      "æ·±": 327,
      "éħĴ": 328,
      "å¤ľ": 329,
      "æ¢": 330,
      "æĽ´": 331,
      "èĻķ": 332,
      "èĤ": 333,
      "æ¿": 334,
      "æº": 335,
      "åĲį": 336,
      "æ¬²": 337,
      "çħ": 338,
      "è·": 339,
      "åķ": 340,
      "çİī": 341,
      "æ¯": 342,
      "èİ": 343,
      "åĿ": 344,
      "ç¯": 345,
      "æŁ": 346,
      "èı": 347,
      "éĹ": 348,
      "å¹³": 349,
      "æĽ¸": 350,
      "è£": 351,
      "æ°£": 352,
      "æĿ±": 353,
      "æµģ": 354,
      "çŃ": 355,
      "èĥ½": 356,
      "æ®": 357,
      "éłŃ": 358,
      "èĹ": 359,
      "åħ¥": 360,
      "éĥ": 361,
      "çĩ": 362,
      "éĿŀ": 363,
      "å¾ŀ": 364,
      "éĿĴ": 365,
      "éģł": 366,
      "åįĹ": 367,
      "æĸ°": 368,
      "çĽ¡": 369,
      "éĸĢ": 370,
      "æ¹": 371,
      "é©": 372,
      "è¾": 373,
      "è¥¿": 374,
      "å®¢": 375,
      "éĩį": 376,
      "èº«": 377,
      "çķ¶": 378,
      "æĮ": 379,
      "çī©": 380,
      "é£Ľ": 381,
      "éĸĵ": 382,
      "ç¥ŀ": 383,
      "éŃ": 384,
      "éĸĭ": 385,
      "å¾©": 386,
      "ä½ľ": 387,
      "åģ": 388,
      "å§": 389,
      "æľĿ": 390,
      "æĸ¹": 391,
      "æĵ": 392,
      "èĮ": 393,
      "éĽ£": 394,
      "éĩĳ": 395,
      "çļ": 396,
      "ç²": 397,
      "åįģ": 398,
      "çĥ": 399,
      "è¨Ģ": 400,
      "çĻ¾": 401,
      "èī²": 402,
      "æ£": 403,
      "å®ī": 404,
      "ç¹": 405,
      "çľĭ": 406,
      "èĢħ": 407,
      "å°ĩ": 408,
      "èĲ½": 409,
      "èŃ": 410,
      "å¡µ": 411,
      "é¦Ļ": 412,
      "åĪ°": 413,
      "æ©": 414,
      "æ¶": 415,
      "çŁ³": 416,
      "èĴ": 417,
      "åĴ": 418,
      "éģİ": 419,
      "è±Ī": 420,
      "åĲĮ": 421,
      "å¹¾": 422,
      "çĮ¶": 423,
      "æ¡": 424,
      "æµ·": 425,
      "èįī": 426,
      "åħī": 427,
      "å¥½": 428,
      "åĵ": 429,
      "æı": 430,
      "éĽª": 431,
      "èİ«": 432,
      "æ½": 433,
      "é¾": 434,
      "åĲ¾": 435,
      "æĢĿ": 436,
      "èķ": 437,
      "é»Ħ": 438,
      "éłĪ": 439,
      "æŃ£": 440,
      "éĻ½": 441,
      "çį¨": 442,
      "åĥ": 443,
      "éĩĮ": 444,
      "åĺ": 445,
      "èģŀ": 446,
      "å¤ĸ": 447,
      "åĽĽ": 448,
      "åŁİ": 449,
      "å³": 450,
      "èĵ": 451,
      "çľŁ": 452,
      "çģ": 453,
      "æŃ²": 454,
      "æ¨Ĥ": 455,
      "æŀĹ": 456,
      "ç°": 457,
      "è·¯": 458,
      "åĦ": 459,
      "å¾Į": 460,
      "ç¬ĳ": 461,
      "åĲŁ": 462,
      "æĥħ": 463,
      "éĻ°": 464,
      "ç¸": 465,
      "èĭ¥": 466,
      "çĲ": 467,
      "ä¼¼": 468,
      "æ¾": 469,
      "æĸĩ": 470,
      "å¢": 471,
      "å°ı": 472,
      "ç¢": 473,
      "éŁ": 474,
      "åħ©": 475,
      "åĪĨ": 476,
      "èµ·": 477,
      "éĦ": 478,
      "èĪĬ": 479,
      "æł": 480,
      "èĸ": 481,
      "ç·": 482,
      "èĺ": 483,
      "æľĽ": 484,
      "åħĪ": 485,
      "æ»¿": 486,
      "æŃĮ": 487,
      "è¡£": 488,
      "é¬": 489,
      "é¾į": 490,
      "ä»Ļ": 491,
      "å¤¢": 492,
      "é¤ĺ": 493,
      "éĤĬ": 494,
      "æĩī": 495,
      "é¦¬": 496,
      "å±ħ": 497,
      "èĢĮ": 498,
      "éĨī": 499,
      "æĿ¾": 500,
      "éĤĦ": 501,
      "éĽĸ": 502,
      "å¹½": 503,
      "åľĭ": 504,
      "æ°ĳ": 505,
      "åĲĳ": 506,
      "æµ®": 507,
      "åĽŀ": 508,
      "ç±": 509,
      "é¼": 510,
      "çı": 511,
      "éļ¨": 512,
      "è®": 513,
      "è¶³": 514,
      "éĩİ": 515,
      "èı¯": 516,
      "çķĻ": 517,
      "åķı": 518,
      "å°ĳ": 519,
      "æĩ·": 520,
      "æĻļ": 521,
      "ä½¿": 522,
      "æķħ": 523,
      "åĤ³": 524,
      "åĿĲ": 525,
      "äºĮ": 526,
      "æķ¸": 527,
      "ç½": 528,
      "äºĶ": 529,
      "æ¨¹": 530,
      "æ¹ĸ": 531,
      "ä¸Ķ": 532,
      "çľ¼": 533,
      "éľľ": 534,
      "åŃ¤": 535,
      "åĹ": 536,
      "éĮ": 537,
      "åĮĹ": 538,
      "çµĤ": 539,
      "å°ļ": 540,
      "èĩ³": 541,
      "ä¹ħ": 542,
      "è¼ķ": 543,
      "é½": 544,
      "éº": 545,
      "çº": 546,
      "èĦ": 547,
      "ç«¹": 548,
      "åį´": 549,
      "éĸĴ": 550,
      "çĶ¨": 551,
      "å´": 552,
      "ç¿ģ": 553,
      "é¨": 554,
      "ä¹Ŀ": 555,
      "èªŀ": 556,
      "è½": 557,
      "åıĪ": 558,
      "å¿½": 559,
      "åĬĽ": 560,
      "å¾·": 561,
      "åįĬ": 562,
      "ç´ħ": 563,
      "æīĭ": 564,
      "åłĤ": 565,
      "å¸¸": 566,
      "æĺĵ": 567,
      "éģĬ": 568,
      "è³¢": 569,
      "ç¯Ģ": 570,
      "å®ĺ": 571,
      "éĿĪ": 572,
      "çĳ": 573,
      "å£«": 574,
      "çĹ": 575,
      "é§": 576,
      "æĽ¾": 577,
      "åĪĿ": 578,
      "æ¦": 579,
      "å¾®": 580,
      "åĬŁ": 581,
      "åĸľ": 582,
      "æĺĶ": 583,
      "å®¹": 584,
      "æ³ī": 585,
      "æ¢ħ": 586,
      "èĪĪ": 587,
      "å¤ª": 588,
      "é´": 589,
      "çª®": 590,
      "åħ±": 591,
      "çĥŁ": 592,
      "çĭ": 593,
      "æĦģ": 594,
      "èŁ": 595,
      "æĥŁ": 596,
      "çİĭ": 597,
      "æ³¢": 598,
      "åĴĮ": 599,
      "å¿ĺ": 600,
      "èħ": 601,
      "éľ²": 602,
      "èĬ³": 603,
      "é¶": 604,
      "çµķ": 605,
      "è¢": 606,
      "åĶ": 607,
      "çĨ": 608,
      "æĳ": 609,
      "é©ļ": 610,
      "åħĴ": 611,
      "åıª": 612,
      "éĢļ": 613,
      "è¿ĳ": 614,
      "é³´": 615,
      "æ¨ĵ": 616,
      "éŃļ": 617,
      "åŀ": 618,
      "çł": 619,
      "æľ¨": 620,
      "å°į": 621,
      "å²": 622,
      "éĢ¢": 623,
      "ä¿Ĺ": 624,
      "è»Ĭ": 625,
      "æºª": 626,
      "æĸ¼": 627,
      "å°ĭ": 628,
      "çĻ»": 629,
      "æ¼¢": 630,
      "å¾Ģ": 631,
      "æĦĽ": 632,
      "èĴ¼": 633,
      "å¶": 634,
      "çĵ": 635,
      "å¤«": 636,
      "åĭķ": 637,
      "è¹": 638,
      "èĪŁ": 639,
      "ç¶ĵ": 640,
      "çĶ°": 641,
      "éĬ": 642,
      "æŀĿ": 643,
      "ç¶ł": 644,
      "èĳĹ": 645,
      "åŃ¸": 646,
      "éĿ¢": 647,
      "èĳī": 648,
      "é·": 649,
      "ç®": 650,
      "æľ¬": 651,
      "çĽ´": 652,
      "ç¿ł": 653,
      "æľŁ": 654,
      "åħ®": 655,
      "å®ľ": 656,
      "éģº": 657,
      "åºŃ": 658,
      "æľĥ": 659,
      "å·ŀ": 660,
      "èĭ¦": 661,
      "éĹľ": 662,
      "ä¼ĳ": 663,
      "èŃĺ": 664,
      "åĲĪ": 665,
      "å®ļ": 666,
      "èĻĽ": 667,
      "åĭĿ": 668,
      "æĨĤ": 669,
      "æŁ³": 670,
      "åĽł": 671,
      "ä»¤": 672,
      "ç¢§": 673,
      "çĪ¾": 674,
      "èĩº": 675,
      "æĲ": 676,
      "ä½Ĩ": 677,
      "èĩ¨": 678,
      "çĴ": 679,
      "èªª": 680,
      "èĨ": 681,
      "ç´Ľ": 682,
      "ç¾©": 683,
      "èķŃ": 684,
      "è¦ª": 685,
      "ä¾¿": 686,
      "åĲ¹": 687,
      "æĸ·": 688,
      "æ²³": 689,
      "ç²¾": 690,
      "æĻ¯": 691,
      "è¼ī": 692,
      "æĤ²": 693,
      "ä¹ĥ": 694,
      "èģ½": 695,
      "è§Ģ": 696,
      "çĽ®": 697,
      "åħŃ": 698,
      "å½±": 699,
      "æ¸¸": 700,
      "å¾ħ": 701,
      "è¦º": 702,
      "æ±ł": 703,
      "ä¿¡": 704,
      "åĮĸ": 705,
      "é³¥": 706,
      "ä¸įåı¯": 707,
      "çķ«": 708,
      "ä¸¹": 709,
      "éĸĳ": 710,
      "åĪ¥": 711,
      "å¨": 712,
      "æĴ": 713,
      "äºŃ": 714,
      "å¿ħ": 715,
      "ç£": 716,
      "å®®": 717,
      "æĸ¯": 718,
      "æĻ´": 719,
      "æĦŁ": 720,
      "è«ĸ": 721,
      "éª": 722,
      "éĽ¢": 723,
      "çĢ": 724,
      "å¸«": 725,
      "éĦī": 726,
      "å¥ĩ": 727,
      "äº¤": 728,
      "éĽĻ": 729,
      "ç«ĭ": 730,
      "é¦ĸ": 731,
      "åħĥ": 732,
      "æĺŁ": 733,
      "æĹ©": 734,
      "åĹŁ": 735,
      "æĽī": 736,
      "çĻ¼": 737,
      "çļĨ": 738,
      "å¤ķ": 739,
      "åıĬ": 740,
      "å¯Ħ": 741,
      "éĢ£": 742,
      "è£ı": 743,
      "åŀĤ": 744,
      "ç´«": 745,
      "èł": 746,
      "çķ°": 747,
      "èĶ": 748,
      "éĳ": 749,
      "æĪĸ": 750,
      "ä¹ĺ": 751,
      "æļ®": 752,
      "çĹħ": 753,
      "èĽ": 754,
      "æŃ»": 755,
      "é¡§": 756,
      "çħ§": 757,
      "ç¾£": 758,
      "å®Ī": 759,
      "æĹ¢": 760,
      "å§ĭ": 761,
      "çł´": 762,
      "ä¸»": 763,
      "çªĹ": 764,
      "ä¾Ŀ": 765,
      "é¡ĺ": 766,
      "èľ": 767,
      "åıĸ": 768,
      "çĬ": 769,
      "éĲ": 770,
      "åľĴ": 771,
      "éĢģ": 772,
      "è«¸": 773,
      "èī¯": 774,
      "è²´": 775,
      "åłª": 776,
      "æģ¨": 777,
      "çŃĨ": 778,
      "éª¨": 779,
      "é¥": 780,
      "çĤ": 781,
      "æīį": 782,
      "è§£": 783,
      "çħĻ": 784,
      "ç¤": 785,
      "åľŁ": 786,
      "æķĻ": 787,
      "çĿ": 788,
      "åľĸ": 789,
      "è¦ģ": 790,
      "å¸Ŀ": 791,
      "ç¨®": 792,
      "å¤±": 793,
      "çĸĳ": 794,
      "æį": 795,
      "éĿľ": 796,
      "å³°": 797,
      "åı£": 798,
      "å·Ŀ": 799,
      "åĳ½": 800,
      "æ¥µ": 801,
      "éĥ½": 802,
      "åĥ§": 803,
      "æŃ¥": 804,
      "å¯§": 805,
      "ç«¯": 806,
      "çĩķ": 807,
      "åº¦": 808,
      "å¿µ": 809,
      "èįĴ": 810,
      "åĳ¼": 811,
      "åļ": 812,
      "é¶´": 813,
      "æķ¢": 814,
      "è½ī": 815,
      "éĺ": 816,
      "æ±Ĥ": 817,
      "åĭŀ": 818,
      "æĺ¥é¢¨": 819,
      "è°": 820,
      "ä¸įçŁ¥": 821,
      "åĵī": 822,
      "æª": 823,
      "åŃĹ": 824,
      "æĽ²": 825,
      "ç«ł": 826,
      "æ©Ł": 827,
      "è®Ĭ": 828,
      "åĩī": 829,
      "æĨ¶": 830,
      "èĹı": 831,
      "éģ©": 832,
      "çĸı": 833,
      "åħ«": 834,
      "æ´ŀ": 835,
      "èĤ¯": 836,
      "è¸": 837,
      "åĭ¢": 838,
      "æ¥ļ": 839,
      "èĪī": 840,
      "çģ«": 841,
      "æ§": 842,
      "å¯Ĥ": 843,
      "åĽº": 844,
      "èĸĦ": 845,
      "éľŀ": 846,
      "æĨĲ": 847,
      "å¾Ĵ": 848,
      "ä½³": 849,
      "å°º": 850,
      "è¨±": 851,
      "åĨ·": 852,
      "å½¢": 853,
      "è»Ĵ": 854,
      "åĲ³": 855,
      "åŃĺ": 856,
      "å·ĸ": 857,
      "æĤł": 858,
      "èģĸ": 859,
      "é£Ł": 860,
      "èĭ±": 861,
      "æĮģ": 862,
      "çļĩ": 863,
      "ä¾¯": 864,
      "èªł": 865,
      "é¡Ķ": 866,
      "æ®Ĭ": 867,
      "å«": 868,
      "å¯¦": 869,
      "çĶ±": 870,
      "éŀ": 871,
      "åħ¨": 872,
      "åı¥": 873,
      "æł¹": 874,
      "å±ĭ": 875,
      "æŃ¡": 876,
      "æµª": 877,
      "æĢ¥": 878,
      "è¬Ŀ": 879,
      "éŁ³": 880,
      "é£²": 881,
      "åł±": 882,
      "åĢļ": 883,
      "æĮĩ": 884,
      "é¼ĵ": 885,
      "æĥľ": 886,
      "å£¯": 887,
      "æ²Ļ": 888,
      "æģ¯": 889,
      "æĶ¶": 890,
      "éµ": 891,
      "èĪ¹": 892,
      "éĻ³": 893,
      "çīĽ": 894,
      "å¹¸": 895,
      "çĪŃ": 896,
      "å¸¦": 897,
      "äºİ": 898,
      "åĭ¤": 899,
      "å¥³": 900,
      "èĪŀ": 901,
      "éĻµ": 902,
      "ç¿»": 903,
      "æ¡ĥ": 904,
      "æģĲ": 905,
      "è¬Ĥ": 906,
      "æģ©": 907,
      "æ®ĺ": 908,
      "æ©«": 909,
      "æĺı": 910,
      "æķ£": 911,
      "ç§»": 912,
      "ç¾İ": 913,
      "æ³ķ": 914,
      "éļĶ": 915,
      "èĲ¬éĩĮ": 916,
      "å¿Ĺ": 917,
      "èģĬ": 918,
      "éļł": 919,
      "æĬĬ": 920,
      "çŀ": 921,
      "ç´ł": 922,
      "åĭ¿": 923,
      "ä¿±": 924,
      "çĩĪ": 925,
      "èŀ": 926,
      "çµ²": 927,
      "åį±": 928,
      "ç¾½": 929,
      "èĥ¡": 930,
      "åį§": 931,
      "äºĤ": 932,
      "åħµ": 933,
      "ä»»": 934,
      "çĽĽ": 935,
      "è¾Ń": 936,
      "éı": 937,
      "ç´°": 938,
      "æ·®": 939,
      "ç¶Ń": 940,
      "éĽĦ": 941,
      "ä¸įè¦ĭ": 942,
      "åĨ°": 943,
      "å®¿": 944,
      "åĨł": 945,
      "åĤ·": 946,
      "åį·": 947,
      "èĻİ": 948,
      "è¡°": 949,
      "çľł": 950,
      "éİ": 951,
      "å£ģ": 952,
      "çŁ£": 953,
      "æĶ¾": 954,
      "æ¥Ń": 955,
      "çĶĺ": 956,
      "è³¦": 957,
      "åĤ¾": 958,
      "å¹³çĶŁ": 959,
      "æ¾¤": 960,
      "é½Ĭ": 961,
      "çµĲ": 962,
      "åįĥéĩĮ": 963,
      "é³³": 964,
      "åİŁ": 965,
      "èıĬ": 966,
      "æĸľ": 967,
      "æĿĳ": 968,
      "æĸĹ": 969,
      "åºķ": 970,
      "é»ŀ": 971,
      "ç¦®": 972,
      "èµ°": 973,
      "åĵĢ": 974,
      "æľĢ": 975,
      "èĩ£": 976,
      "èĢ³": 977,
      "æ¦®": 978,
      "ä¹Ł": 979,
      "æ³¥": 980,
      "è²ł": 981,
      "æĿ¯": 982,
      "æĥ³": 983,
      "åĬį": 984,
      "çĲĨ": 985,
      "çŁŃ": 986,
      "åĳ¨": 987,
      "åĺī": 988,
      "è°·": 989,
      "æ¶Ī": 990,
      "çĲ´": 991,
      "è±¡": 992,
      "èĿ": 993,
      "ä»ĸ": 994,
      "çĶļ": 995,
      "è¡Ĩ": 996,
      "åĳ³": 997,
      "æºĲ": 998,
      "ç·£": 999,
      "èĺŃ": 1000,
      "åīĩ": 1001,
      "è¿¹": 1002,
      "åļ´": 1003,
      "åĨ¥": 1004,
      "åĺĹ": 1005,
      "éģ²": 1006,
      "å·¥": 1007,
      "åŃ«": 1008,
      "æ±Ŀ": 1009,
      "æĬ±": 1010,
      "çħ©": 1011,
      "çĽ¤": 1012,
      "å£½": 1013,
      "å¡ŀ": 1014,
      "åµ": 1015,
      "çĺ": 1016,
      "æŃİ": 1017,
      "è¨Ī": 1018,
      "å¾ĳ": 1019,
      "æĪ¶": 1020,
      "å¯Į": 1021,
      "çĪ¶": 1022,
      "ç©į": 1023,
      "å¤·": 1024,
      "ä¹¾": 1025,
      "å¯¶": 1026,
      "èĢķ": 1027,
      "æĢ§": 1028,
      "æŀ¯": 1029,
      "äºĳ": 1030,
      "åĲı": 1031,
      "åį³": 1032,
      "æŀķ": 1033,
      "è¿·": 1034,
      "èĵĭ": 1035,
      "ç¸±": 1036,
      "å®¤": 1037,
      "éĢĲ": 1038,
      "æ´Ĺ": 1039,
      "å¿ł": 1040,
      "èĵ¬": 1041,
      "å°±": 1042,
      "éĻ¶": 1043,
      "èµ¤": 1044,
      "éĽ·": 1045,
      "èĩ´": 1046,
      "æ²Ī": 1047,
      "å¼µ": 1048,
      "å¼º": 1049,
      "æ¥Ĭ": 1050,
      "æ¯Ķ": 1051,
      "çıł": 1052,
      "åĻ": 1053,
      "è®Ģ": 1054,
      "äºĨ": 1055,
      "åĪ©": 1056,
      "é¨İ": 1057,
      "è´": 1058,
      "éĭ": 1059,
      "æ°¸": 1060,
      "ç§Ģ": 1061,
      "çīĩ": 1062,
      "è©¦": 1063,
      "è¨ĺ": 1064,
      "æĬĺ": 1065,
      "èĮ²": 1066,
      "é±": 1067,
      "è»į": 1068,
      "å¦Ļ": 1069,
      "è±Ĳ": 1070,
      "åĸĦ": 1071,
      "è§Ĵ": 1072,
      "éĪ": 1073,
      "å°ģ": 1074,
      "éĸ£": 1075,
      "å¥Ī": 1076,
      "è³ŀ": 1077,
      "éģ¥": 1078,
      "è¬Ģ": 1079,
      "åĦĴ": 1080,
      "åĶĲ": 1081,
      "å©": 1082,
      "æĦ§": 1083,
      "æ²»": 1084,
      "æİ¥": 1085,
      "é¤Ĭ": 1086,
      "è¾²": 1087,
      "éŃĤ": 1088,
      "ç±¬": 1089,
      "é´»": 1090,
      "é¸": 1091,
      "éģĤ": 1092,
      "ä»°": 1093,
      "ç«Ł": 1094,
      "ç¾ħ": 1095,
      "æ¸ħé¢¨": 1096,
      "è¢«": 1097,
      "æ¤": 1098,
      "æļĳ": 1099,
      "æļĹ": 1100,
      "åĢĴ": 1101,
      "ç¯ĩ": 1102,
      "æŃ¦": 1103,
      "åįĢ": 1104,
      "ä½ı": 1105,
      "ç¥ĸ": 1106,
      "åºľ": 1107,
      "å½¼": 1108,
      "æŃ¸ä¾Ĩ": 1109,
      "æ©ĭ": 1110,
      "äºĪ": 1111,
      "å£ĳ": 1112,
      "å¢ĥ": 1113,
      "éį": 1114,
      "è¦ĸ": 1115,
      "æ·¡": 1116,
      "å¸Ĥ": 1117,
      "ç§¦": 1118,
      "è¿İ": 1119,
      "å¼ķ": 1120,
      "èĹ¥": 1121,
      "éĮ¦": 1122,
      "æ¢ģ": 1123,
      "çŃĸ": 1124,
      "æĿİ": 1125,
      "è«ĩ": 1126,
      "é£Ħ": 1127,
      "èĥ¸": 1128,
      "æ¼«": 1129,
      "æ¼ģ": 1130,
      "èĮħ": 1131,
      "å·§": 1132,
      "ç«¥": 1133,
      "ä¸ĥ": 1134,
      "ä»ģ": 1135,
      "ä»į": 1136,
      "å¤©åľ°": 1137,
      "é«®": 1138,
      "æ¯Ľ": 1139,
      "å¬": 1140,
      "ä¸Ī": 1141,
      "éĽħ": 1142,
      "åı¢": 1143,
      "ä½Ľ": 1144,
      "å°Ĭ": 1145,
      "åŃ°": 1146,
      "è³ĵ": 1147,
      "ä¼´": 1148,
      "è²§": 1149,
      "ç¨±": 1150,
      "ç¦ª": 1151,
      "çĥı": 1152,
      "éĢł": 1153,
      "å¥Ķ": 1154,
      "éĤ£": 1155,
      "æĭĤ": 1156,
      "åıĭ": 1157,
      "æ·º": 1158,
      "èĮ«": 1159,
      "æ¼¸": 1160,
      "æļĸ": 1161,
      "ç¦ı": 1162,
      "èĸ¦": 1163,
      "æĻĿ": 1164,
      "ä¹İ": 1165,
      "å¦Ĥä½ķ": 1166,
      "çĻ½éĽ²": 1167,
      "å¤ı": 1168,
      "åıĥ": 1169,
      "äººéĸĵ": 1170,
      "åĩĮ": 1171,
      "æ¨½": 1172,
      "æĬķ": 1173,
      "çį»": 1174,
      "å»¬": 1175,
      "éłĹ": 1176,
      "æ·ļ": 1177,
      "å¸Ń": 1178,
      "æ±Łæ¹ĸ": 1179,
      "éĦ°": 1180,
      "çĭĤ": 1181,
      "å¶º": 1182,
      "çĴ°": 1183,
      "éĽŀ": 1184,
      "è¨ª": 1185,
      "ä¿®": 1186,
      "åķ¼": 1187,
      "æ¡ĳ": 1188,
      "æıļ": 1189,
      "é¬¢": 1190,
      "åħ§": 1191,
      "èĪį": 1192,
      "æ»Ħ": 1193,
      "é§ķ": 1194,
      "æľ±": 1195,
      "æŃ¢": 1196,
      "éļª": 1197,
      "æİ¨": 1198,
      "é¥ĳ": 1199,
      "å¯Ĩ": 1200,
      "å¤©ä¸ĭ": 1201,
      "å¥ī": 1202,
      "è±ª": 1203,
      "é¡ŀ": 1204,
      "å¼Ħ": 1205,
      "è¶Ĭ": 1206,
      "ä¸ĺ": 1207,
      "åıį": 1208,
      "éĻ¤": 1209,
      "ç´Ħ": 1210,
      "åŁĥ": 1211,
      "ç¬¬": 1212,
      "éĥĬ": 1213,
      "æĵ¬": 1214,
      "å¯º": 1215,
      "ä½ķèĻķ": 1216,
      "è¿½": 1217,
      "åĢŁ": 1218,
      "éĹĬ": 1219,
      "æ¹ĺ": 1220,
      "éģĶ": 1221,
      "éĩ£": 1222,
      "æĢª": 1223,
      "èĥĮ": 1224,
      "åįģå¹´": 1225,
      "æ£Ħ": 1226,
      "æı®": 1227,
      "æ¸ł": 1228,
      "æĥ¡": 1229,
      "èį·": 1230,
      "æħ°": 1231,
      "æ¿Ģ": 1232,
      "æ£²": 1233,
      "æµ©": 1234,
      "è¥Ł": 1235,
      "æŃ·": 1236,
      "èĻŁ": 1237,
      "é¦³": 1238,
      "ç§ĭé¢¨": 1239,
      "è¶£": 1240,
      "å»£": 1241,
      "æ¯«": 1242,
      "åª": 1243,
      "å¢¨": 1244,
      "é®": 1245,
      "å¯¸": 1246,
      "éł»": 1247,
      "å¦ĤæŃ¤": 1248,
      "åĨį": 1249,
      "é¡Į": 1250,
      "åı¤äºº": 1251,
      "èĤħ": 1252,
      "æ®¿": 1253,
      "å±¬": 1254,
      "çľī": 1255,
      "åĤ¬": 1256,
      "åĤį": 1257,
      "å´ĸ": 1258,
      "æ¢ħèĬ±": 1259,
      "å²¸": 1260,
      "éī": 1261,
      "éģ¿": 1262,
      "ä½İ": 1263,
      "å¿į": 1264,
      "æ·µ": 1265,
      "åİŃ": 1266,
      "æĨĳ": 1267,
      "æĶ¿": 1268,
      "å»Ł": 1269,
      "éĮ¢": 1270,
      "å¨ģ": 1271,
      "ç¾ŀ": 1272,
      "æĿ±é¢¨": 1273,
      "åģı": 1274,
      "æĺ¨": 1275,
      "å®Ĺ": 1276,
      "å±¤": 1277,
      "åĪĹ": 1278,
      "æī¶": 1279,
      "é£½": 1280,
      "åĸ§": 1281,
      "æ¯ı": 1282,
      "é©ħ": 1283,
      "æĳĩ": 1284,
      "åľĵ": 1285,
      "æĿľ": 1286,
      "é¼İ": 1287,
      "æĲº": 1288,
      "å¾ģ": 1289,
      "èª¿": 1290,
      "æĭľ": 1291,
      "éĨĴ": 1292,
      "æ¿Ł": 1293,
      "åĲ«": 1294,
      "åıĹ": 1295,
      "æĹħ": 1296,
      "éĢĢ": 1297,
      "éļĽ": 1298,
      "èįĨ": 1299,
      "çĳ¶": 1300,
      "ä¼ı": 1301,
      "éĲµ": 1302,
      "äºķ": 1303,
      "å®ĩ": 1304,
      "æ¸¾": 1305,
      "æĿĸ": 1306,
      "æ¡Ĥ": 1307,
      "èķ©": 1308,
      "çºĶ": 1309,
      "é·Ĺ": 1310,
      "åĽ°": 1311,
      "çİĦ": 1312,
      "æ¬£": 1313,
      "èĭĶ": 1314,
      "çĸİ": 1315,
      "åģ¶": 1316,
      "çıį": 1317,
      "èħ¸": 1318,
      "çĨŁ": 1319,
      "éĬĢ": 1320,
      "é¹": 1321,
      "å±Ī": 1322,
      "çĽĪ": 1323,
      "ä¾µ": 1324,
      "æĺİæľĪ": 1325,
      "åĢ¦": 1326,
      "çĩŁ": 1327,
      "å®īå¾Ĺ": 1328,
      "æ¶¯": 1329,
      "ç³": 1330,
      "éģĩ": 1331,
      "æĸ½": 1332,
      "æĹĭ": 1333,
      "ç¦½": 1334,
      "çĤİ": 1335,
      "ç¤¾": 1336,
      "æĻ¨": 1337,
      "éĸī": 1338,
      "çĦ¡äºº": 1339,
      "çķı": 1340,
      "éļ±": 1341,
      "ç©¿": 1342,
      "éĥİ": 1343,
      "ç£¨": 1344,
      "å®µ": 1345,
      "ä»ĺ": 1346,
      "å±¢": 1347,
      "å¯¥": 1348,
      "éĢ²": 1349,
      "ç´¯": 1350,
      "æī¿": 1351,
      "è§´": 1352,
      "æ¿¤": 1353,
      "äº¡": 1354,
      "åĲĦ": 1355,
      "æ·»": 1356,
      "éľ§": 1357,
      "å£º": 1358,
      "çģĳ": 1359,
      "åĬŁåĲį": 1360,
      "é¸ŀ": 1361,
      "æĪ°": 1362,
      "ä¾Ľ": 1363,
      "åĨ¬": 1364,
      "è²·": 1365,
      "ç¨Ģ": 1366,
      "æĶĢ": 1367,
      "æĭĽ": 1368,
      "éŁ¿": 1369,
      "é½ĭ": 1370,
      "èĦ«": 1371,
      "âĸ": 1372,
      "æĺŃ": 1373,
      "å¯«": 1374,
      "æ³ģ": 1375,
      "ä¼Ĭ": 1376,
      "éħ¬": 1377,
      "è¶¨": 1378,
      "ç¹ģ": 1379,
      "éį¾": 1380,
      "âĸ¡": 1381,
      "åıŁ": 1382,
      "æ²ī": 1383,
      "åĨµ": 1384,
      "æ´Ľ": 1385,
      "æ¿ķ": 1386,
      "çķ¶æĻĤ": 1387,
      "ç°·": 1388,
      "ç½·": 1389,
      "éĽĨ": 1390,
      "åı²": 1391,
      "çĽĬ": 1392,
      "å£ĵ": 1393,
      "éĽģ": 1394,
      "ä¸įå¾Ĺ": 1395,
      "æĹ¥æľĪ": 1396,
      "éľĦ": 1397,
      "é«Ķ": 1398,
      "éĹķ": 1399,
      "åįĩ": 1400,
      "è¦ı": 1401,
      "ç´¢": 1402,
      "æĤŁ": 1403,
      "åĿ¤": 1404,
      "é¬¼": 1405,
      "åħ¼": 1406,
      "å¾¡": 1407,
      "å¾¹": 1408,
      "ä¸įèĥ½": 1409,
      "éĢ¸": 1410,
      "è©Ķ": 1411,
      "é«ª": 1412,
      "æļĩ": 1413,
      "æĬ«": 1414,
      "æ¯į": 1415,
      "æ½Ķ": 1416,
      "æł¼": 1417,
      "ä»£": 1418,
      "å¯¬": 1419,
      "å¦¨": 1420,
      "æ²Ĵ": 1421,
      "æļ«": 1422,
      "æħ®": 1423,
      "å»¢": 1424,
      "éĹĮ": 1425,
      "æ½®": 1426,
      "æµ®éĽ²": 1427,
      "åħ·": 1428,
      "è¡¡": 1429,
      "æ¨µ": 1430,
      "éħĮ": 1431,
      "åłħ": 1432,
      "çŃī": 1433,
      "å¢®": 1434,
      "èĦļ": 1435,
      "éŀŃ": 1436,
      "åħį": 1437,
      "åįĪ": 1438,
      "å±ı": 1439,
      "å¹²": 1440,
      "æĹģ": 1441,
      "å¸ĥ": 1442,
      "çīĨ": 1443,
      "çīĻ": 1444,
      "ç¥Ģ": 1445,
      "å¡Ĺ": 1446,
      "ä»ĬæĹ¥": 1447,
      "å»·": 1448,
      "èĴĻ": 1449,
      "æĽ¹": 1450,
      "è¦Ĩ": 1451,
      "åĩ¡": 1452,
      "ç¾Ī": 1453,
      "è©±": 1454,
      "åİļ": 1455,
      "ç¨į": 1456,
      "ç¹¼": 1457,
      "å³¯": 1458,
      "èĵ®": 1459,
      "é®®": 1460,
      "å°¤": 1461,
      "åĪĢ": 1462,
      "ç¥ł": 1463,
      "è¶ģ": 1464,
      "åķĨ": 1465,
      "éĥ¡": 1466,
      "å«Į": 1467,
      "éı¡": 1468,
      "åħ¸": 1469,
      "è¡¨": 1470,
      "åĩĿ": 1471,
      "ç«¶": 1472,
      "éĤ¦": 1473,
      "æĢĴ": 1474,
      "æħ¨": 1475,
      "ç¦ģ": 1476,
      "çªº": 1477,
      "æ¿ĥ": 1478,
      "ç°¡": 1479,
      "æľį": 1480,
      "äººçĶŁ": 1481,
      "å¿«": 1482,
      "å·®": 1483,
      "éĢĶ": 1484,
      "éĻį": 1485,
      "è¼¿": 1486,
      "æħ¶": 1487,
      "æħļ": 1488,
      "éĥŃ": 1489,
      "èĮ¶": 1490,
      "åħĪçĶŁ": 1491,
      "ä¸įéłĪ": 1492,
      "åįł": 1493,
      "å·¨": 1494,
      "ä½ķæĻĤ": 1495,
      "åĸļ": 1496,
      "è·¡": 1497,
      "çĵĬ": 1498,
      "ä¸»äºº": 1499,
      "é¯": 1500,
      "äº¬": 1501,
      "å¾Ĭ": 1502,
      "æĹĹ": 1503,
      "é¢¨éĽ¨": 1504,
      "èģļ": 1505,
      "çķ¥": 1506,
      "èĻŀ": 1507,
      "æĥł": 1508,
      "æİĥ": 1509,
      "çıŃ": 1510,
      "æĳ§": 1511,
      "ç´Ľç´Ľ": 1512,
      "èľĢ": 1513,
      "éĲĺ": 1514,
      "å®ħ": 1515,
      "æĽ°": 1516,
      "é¢¨æµģ": 1517,
      "å£ĩ": 1518,
      "ä¼¯": 1519,
      "è¼Ŀ": 1520,
      "çĸĬ": 1521,
      "æ¢Ŀ": 1522,
      "æ½Ľ": 1523,
      "åĦĢ": 1524,
      "é¨·": 1525,
      "æĤłæĤł": 1526,
      "æ«": 1527,
      "è¤": 1528,
      "æĺł": 1529,
      "åľĺ": 1530,
      "åŃĶ": 1531,
      "éĩĩ": 1532,
      "æĦļ": 1533,
      "ç¾Ĭ": 1534,
      "ç¿¼": 1535,
      "çĽ¸éĢ¢": 1536,
      "å½Į": 1537,
      "æħķ": 1538,
      "æ®º": 1539,
      "è¥¿é¢¨": 1540,
      "ç®ĩ": 1541,
      "çĿ¡": 1542,
      "æĽł": 1543,
      "è¡Ģ": 1544,
      "è¡ĵ": 1545,
      "åĪ«": 1546,
      "åĪĩ": 1547,
      "èª¤": 1548,
      "è©ł": 1549,
      "é£¯": 1550,
      "è¼©": 1551,
      "åº·": 1552,
      "æ¼ł": 1553,
      "æİ©": 1554,
      "æ´²": 1555,
      "åľį": 1556,
      "ä½ķå¦Ĥ": 1557,
      "ç¢ĳ": 1558,
      "ç½®": 1559,
      "éº¥": 1560,
      "å®£": 1561,
      "å¸Ĩ": 1562,
      "ç¥ĩ": 1563,
      "é»ĳ": 1564,
      "çĸ¾": 1565,
      "å§Ķ": 1566,
      "æ½¤": 1567,
      "èĶ½": 1568,
      "è¸ı": 1569,
      "å±ķ": 1570,
      "éłĺ": 1571,
      "æ³Ľ": 1572,
      "ä¿¯": 1573,
      "è¼ª": 1574,
      "åº¶": 1575,
      "é»ĺ": 1576,
      "æħĪ": 1577,
      "äº¦æľī": 1578,
      "çĮ¿": 1579,
      "æ¾Ĺ": 1580,
      "æķħäºº": 1581,
      "ç®¡": 1582,
      "ä½Ļ": 1583,
      "å·¢": 1584,
      "çĦ¡æīĢ": 1585,
      "ç´Ļ": 1586,
      "å½¹": 1587,
      "çĻ½æĹ¥": 1588,
      "ç¨ĭ": 1589,
      "ç°¾": 1590,
      "ç¸½": 1591,
      "å¢ŀ": 1592,
      "å¤ķéĻ½": 1593,
      "ä¸¦": 1594,
      "çĦī": 1595,
      "æĻº": 1596,
      "èĪĴ": 1597,
      "å·±": 1598,
      "çĪĽ": 1599,
      "æ¸¡": 1600,
      "åı¯æĨĲ": 1601,
      "æĩ¸": 1602,
      "ç¹«": 1603,
      "æł½": 1604,
      "éĽľ": 1605,
      "ä¸įçĪ²": 1606,
      "éģ·": 1607,
      "æľīé¤ĺ": 1608,
      "éļİ": 1609,
      "ç©´": 1610,
      "æ¬Ħ": 1611,
      "æ´¥": 1612,
      "è¾±": 1613,
      "åģľ": 1614,
      "ç¹¡": 1615,
      "èĴ²": 1616,
      "åĽŀé¦ĸ": 1617,
      "é¨°": 1618,
      "èħ¹": 1619,
      "èŀį": 1620,
      "å©¦": 1621,
      "ä¸įå¦Ĥ": 1622,
      "ä¿Ŀ": 1623,
      "æŀľ": 1624,
      "æ´»": 1625,
      "è¾°": 1626,
      "æĵģ": 1627,
      "æ£®": 1628,
      "åĺ¯": 1629,
      "æĸĩç«ł": 1630,
      "èĽŁ": 1631,
      "å®´": 1632,
      "éģ£": 1633,
      "æĪ²": 1634,
      "æĪ¿": 1635,
      "éĩı": 1636,
      "å¸³": 1637,
      "æ»ħ": 1638,
      "åįĥåı¤": 1639,
      "æĭĻ": 1640,
      "æŁĵ": 1641,
      "åģ´": 1642,
      "çĻ¾å¹´": 1643,
      "æ¡Ĳ": 1644,
      "é¬°": 1645,
      "ĺå¾Ĭ": 1646,
      "å¾ĺå¾Ĭ": 1647,
      "ä½©": 1648,
      "ä¸Ģç¬ĳ": 1649,
      "æĹĮ": 1650,
      "å¯ŀ": 1651,
      "åĪ»": 1652,
      "æķµ": 1653,
      "å¥ı": 1654,
      "åĽĬ": 1655,
      "æ¬¡": 1656,
      "è²»": 1657,
      "å§ĳ": 1658,
      "æĵ¾": 1659,
      "èŃ·": 1660,
      "é±Ĺ": 1661,
      "åįĳ": 1662,
      "å¹ķ": 1663,
      "æĪĴ": 1664,
      "å±±ä¸Ń": 1665,
      "éłĥ": 1666,
      "è³¤": 1667,
      "æİĽ": 1668,
      "è«ĭ": 1669,
      "å»¶": 1670,
      "è¾¨": 1671,
      "æ£ł": 1672,
      "æŃ²æľĪ": 1673,
      "çºĸ": 1674,
      "åĶ±": 1675,
      "èĨı": 1676,
      "èļ": 1677,
      "åħĦ": 1678,
      "æĹ¦": 1679,
      "æ°ı": 1680,
      "æľīæĻĤ": 1681,
      "é¢¨åĲ¹": 1682,
      "æĿĲ": 1683,
      "åĩľ": 1684,
      "ç¶²": 1685,
      "æ»´": 1686,
      "æŁı": 1687,
      "æ¾Ħ": 1688,
      "åĶ¯": 1689,
      "çĨĻ": 1690,
      "ä¸įæĺ¯": 1691,
      "å±¥": 1692,
      "åŃĿ": 1693,
      "éĻ¸": 1694,
      "èª¦": 1695,
      "èªĩ": 1696,
      "å¤©åŃĲ": 1697,
      "ç´Ģ": 1698,
      "çī¹": 1699,
      "è¿Ķ": 1700,
      "å½Ī": 1701,
      "æŁ±": 1702,
      "å§¿": 1703,
      "ç¸£": 1704,
      "å·¦": 1705,
      "åĭĩ": 1706,
      "åİ¥": 1707,
      "ç¿°": 1708,
      "åĲĽåŃĲ": 1709,
      "è²Į": 1710,
      "æħĺ": 1711,
      "æ±ŁåįĹ": 1712,
      "æº«": 1713,
      "æĵį": 1714,
      "é·º": 1715,
      "çĺ¦": 1716,
      "çµĥ": 1717,
      "èĲ¬äºĭ": 1718,
      "æ¯ĭ": 1719,
      "æµģæ°´": 1720,
      "éĿĴå±±": 1721,
      "åģ¥": 1722,
      "éĮ«": 1723,
      "ç²¾ç¥ŀ": 1724,
      "éĺ¿": 1725,
      "å°Ħ": 1726,
      "å·¾": 1727,
      "éłĤ": 1728,
      "æĢ¨": 1729,
      "åĤĻ": 1730,
      "æİ¡": 1731,
      "åĳĬ": 1732,
      "èĤ¥": 1733,
      "èĹ¤": 1734,
      "è¾Ľ": 1735,
      "æ¾¹": 1736,
      "èĿ¶": 1737,
      "èĥ¸ä¸Ń": 1738,
      "ç¼": 1739,
      "åı³": 1740,
      "éģĭ": 1741,
      "è©ŀ": 1742,
      "ç¥¥": 1743,
      "éĤĳ": 1744,
      "è¶ħ": 1745,
      "è§¸": 1746,
      "èŃ°": 1747,
      "æıĲ": 1748,
      "èĺĨ": 1749,
      "å¯Ĥå¯ŀ": 1750,
      "æľĭ": 1751,
      "æĪĢ": 1752,
      "æĿ³": 1753,
      "æ±²": 1754,
      "ç¾¨": 1755,
      "åĬ©": 1756,
      "åĬł": 1757,
      "é¡Ľ": 1758,
      "æİĴ": 1759,
      "èª°çŁ¥": 1760,
      "æºŁ": 1761,
      "è£³": 1762,
      "é½Ĵ": 1763,
      "çºĮ": 1764,
      "é´Ī": 1765,
      "è´Ī": 1766,
      "ä¹ŀ": 1767,
      "è¡²": 1768,
      "æ¸º": 1769,
      "çķĿ": 1770,
      "å¤©ä¸Ĭ": 1771,
      "æ³£": 1772,
      "è³ª": 1773,
      "çİ©": 1774,
      "åłĨ": 1775,
      "æĩ¶": 1776,
      "å¼Ĺ": 1777,
      "æĤµ": 1778,
      "è¬¾": 1779,
      "æľĿå»·": 1780,
      "ç¹ŀ": 1781,
      "é»Ħéĩĳ": 1782,
      "åĦª": 1783,
      "éİĸ": 1784,
      "å¥Īä½ķ": 1785,
      "åĲ¦": 1786,
      "éģķ": 1787,
      "å¯ĵ": 1788,
      "è¦ĵ": 1789,
      "çľ¾": 1790,
      "æīģ": 1791,
      "èī·": 1792,
      "æĶ¯": 1793,
      "çĩŃ": 1794,
      "çĥĪ": 1795,
      "èįīæľ¨": 1796,
      "æıĴ": 1797,
      "èĩ³ä»Ĭ": 1798,
      "ä¹¾åĿ¤": 1799,
      "éĽ¶": 1800,
      "åĲĲ": 1801,
      "åį°": 1802,
      "åįľ": 1803,
      "çĶ²": 1804,
      "éĻª": 1805,
      "çľģ": 1806,
      "çī§": 1807,
      "ç¥¿": 1808,
      "ç¿©": 1809,
      "è¿´": 1810,
      "æ¼ı": 1811,
      "ä»Ĭå¹´": 1812,
      "æİĮ": 1813,
      "åŁ·": 1814,
      "æĤ£": 1815,
      "åįĥå¹´": 1816,
      "çĸĨ": 1817,
      "çĸĩ": 1818,
      "åģĩ": 1819,
      "èĺĩ": 1820,
      "ç±ł": 1821,
      "éºĹ": 1822,
      "çĳŀ": 1823,
      "è¹¤": 1824,
      "é¹¿": 1825,
      "æľĶ": 1826,
      "åħ¹": 1827,
      "åĲģ": 1828,
      "ä¸įèĩª": 1829,
      "åľĥ": 1830,
      "å··": 1831,
      "çĪĲ": 1832,
      "å±±å·Ŀ": 1833,
      "åĭī": 1834,
      "èĩªæľī": 1835,
      "ç§ģ": 1836,
      "ç¾¤": 1837,
      "è³ĩ": 1838,
      "æħĭ": 1839,
      "åįĥè¼ī": 1840,
      "åĵģ": 1841,
      "ç·¨": 1842,
      "çĹķ": 1843,
      "çĴ§": 1844,
      "éĳ¿": 1845,
      "æĹ±": 1846,
      "è¦½": 1847,
      "èģ·": 1848,
      "çĻ¡": 1849,
      "æīī": 1850,
      "æīĵ": 1851,
      "åĭ³": 1852,
      "ä¿ĥ": 1853,
      "è·¨": 1854,
      "çķ¶å¹´": 1855,
      "å¡µåŁĥ": 1856,
      "æıĽ": 1857,
      "èĺ¿": 1858,
      "ç±į": 1859,
      "èĦĪ": 1860,
      "è¢ĸ": 1861,
      "çĻ»èĩ¨": 1862,
      "éĬħ": 1863,
      "èķŃèķŃ": 1864,
      "é¢": 1865,
      "æľ«": 1866,
      "åĲŀ": 1867,
      "çĦ¡ä¸Ģ": 1868,
      "å¦¾": 1869,
      "çķĮ": 1870,
      "éĤª": 1871,
      "å£¤": 1872,
      "è³£": 1873,
      "æ¬ł": 1874,
      "èĭŁ": 1875,
      "éĿĴéĽ²": 1876,
      "æ¶¼": 1877,
      "æĴ«": 1878,
      "å¯Įè²´": 1879,
      "å¾ĭ": 1880,
      "æŃ³": 1881,
      "ä¸įæķ¢": 1882,
      "æĸĳ": 1883,
      "çĪ½": 1884,
      "åĭ¸": 1885,
      "å¥ĳ": 1886,
      "åĩĦ": 1887,
      "å¸Į": 1888,
      "éļĨ": 1889,
      "ç¥Ŀ": 1890,
      "ç¿Ĵ": 1891,
      "æ¬Ĭ": 1892,
      "è²ª": 1893,
      "å½©": 1894,
      "å¡ĺ": 1895,
      "æİ¢": 1896,
      "åĿ¡": 1897,
      "æĮ¯": 1898,
      "ç¥ŀä»Ļ": 1899,
      "å§ĵ": 1900,
      "åħħ": 1901,
      "éģĲ": 1902,
      "æĻī": 1903,
      "ä¸ĢæĻĤ": 1904,
      "åŃŁ": 1905,
      "éĢį": 1906,
      "æŃ¤æĻĤ": 1907,
      "æ¬º": 1908,
      "éħ£": 1909,
      "å¼ĵ": 1910,
      "å»º": 1911,
      "åģ·": 1912,
      "æĳ©": 1913,
      "èĽĩ": 1914,
      "éĢłåĮĸ": 1915,
      "ä¸ģ": 1916,
      "å¾ª": 1917,
      "éģ¶": 1918,
      "éģį": 1919,
      "èĩ¾": 1920,
      "èģ³": 1921,
      "éĻ£": 1922,
      "è¼Ĵ": 1923,
      "æŃ¸åİ»": 1924,
      "æ±Łå±±": 1925,
      "æīĢä»¥": 1926,
      "åķŁ": 1927,
      "æŁĶ": 1928,
      "éŃ¯": 1929,
      "æ£¹": 1930,
      "åĻ¨": 1931,
      "å¦į": 1932,
      "éłĵ": 1933,
      "æ¨Ļ": 1934,
      "ç«¿": 1935,
      "è³ľ": 1936,
      "æ»Ķ": 1937,
      "å¼Ł": 1938,
      "åŁº": 1939,
      "ç¬¦": 1940,
      "æĶ¹": 1941,
      "åĢĻ": 1942,
      "èİĬ": 1943,
      "ç¯ī": 1944,
      "è£ľ": 1945,
      "ç²ī": 1946,
      "æ¶ī": 1947,
      "é¾ľ": 1948,
      "ç¤º": 1949,
      "éİ®": 1950,
      "å°¾": 1951,
      "äººå¿ĥ": 1952,
      "è¡®": 1953,
      "ä½ķäºº": 1954,
      "æ·¹": 1955,
      "è¨Ń": 1956,
      "ä¼Ĳ": 1957,
      "æĢķ": 1958,
      "ä¿Ħ": 1959,
      "åł¯": 1960,
      "åł´": 1961,
      "ä¸īå¹´": 1962,
      "çĸ²": 1963,
      "ç¨½": 1964,
      "ç¦¹": 1965,
      "åĩºèĻķ": 1966,
      "è£ĺ": 1967,
      "å§¦": 1968,
      "ç²Ł": 1969,
      "èŁ²": 1970,
      "èŁł": 1971,
      "çĬ¬": 1972,
      "å°Ī": 1973,
      "èĩĺ": 1974,
      "çŁľ": 1975,
      "éĢĨ": 1976,
      "éĻ¢": 1977,
      "éĻĲ": 1978,
      "èĬĿ": 1979,
      "æķĹ": 1980,
      "èĲį": 1981,
      "èĻ¹": 1982,
      "èĻļ": 1983,
      "è±ģ": 1984,
      "æ´ª": 1985,
      "èª°èĥ½": 1986,
      "èĤ©": 1987,
      "åĿĩ": 1988,
      "åįĹå±±": 1989,
      "å°ĩè»į": 1990,
      "æ¶ķ": 1991,
      "åĽĽæµ·": 1992,
      "ç°ª": 1993,
      "ç·©": 1994,
      "èŁ¬": 1995,
      "çĨ±": 1996,
      "æ¥ĬæŁ³": 1997,
      "åı¸": 1998,
      "ä¸įè¶³": 1999,
      "çķª": 2000,
      "ä½ķäºĭ": 2001,
      "ä½ķéłĪ": 2002,
      "æķ²": 2003,
      "èĲĬ": 2004,
      "åīĽ": 2005,
      "åŁĭ": 2006,
      "ç¨»": 2007,
      "éłĪèĩ¾": 2008,
      "èĸ°": 2009,
      "æ¤į": 2010,
      "äº«": 2011,
      "åħĶ": 2012,
      "éģ®": 2013,
      "æĪİ": 2014,
      "æĻ¦": 2015,
      "èĪĮ": 2016,
      "åĪ¶": 2017,
      "éĢ¾": 2018,
      "èģ¯": 2019,
      "å±±æŀĹ": 2020,
      "æĿŁ": 2021,
      "éļ´": 2022,
      "èĲ¬åı¤": 2023,
      "èĲ¬çī©": 2024,
      "åĸª": 2025,
      "ç¬Ľ": 2026,
      "è£Ĥ": 2027,
      "æĵĬ": 2028,
      "é»ĦèĬ±": 2029,
      "ç¢İ": 2030,
      "éº»": 2031,
      "å´ĩ": 2032,
      "èł»": 2033,
      "æ§İ": 2034,
      "æ¡ĥèĬ±": 2035,
      "å®ĭ": 2036,
      "ä¸įå¾©": 2037,
      "åįĴ": 2038,
      "å¿Ļ": 2039,
      "éĻĭ": 2040,
      "ç´Ķ": 2041,
      "åĩį": 2042,
      "ç©Ģ": 2043,
      "è³Ī": 2044,
      "è¼ĥ": 2045,
      "è±Ĩ": 2046,
      "æģį": 2047,
      "èī±": 2048,
      "åı¤ä»Ĭ": 2049,
      "éķ·å®ī": 2050,
      "æ¿ģ": 2051,
      "å¾ŀæŃ¤": 2052,
      "çģ°": 2053,
      "å¶½": 2054,
      "é¥Ĵ": 2055,
      "åįĢåįĢ": 2056,
      "éĽĢ": 2057,
      "ä¸įçĶ¨": 2058,
      "éĸŃ": 2059,
      "çĦ¡å¿ĥ": 2060,
      "èĢĥ": 2061,
      "ä½ķçĪ²": 2062,
      "ä¸Ńæľī": 2063,
      "æ³Ĭ": 2064,
      "è¼¸": 2065,
      "åĨ³": 2066,
      "åĬĩ": 2067,
      "é»į": 2068,
      "åİ»å¹´": 2069,
      "ç¦¾": 2070,
      "é¤¨": 2071,
      "çŃĶ": 2072,
      "çĩĴ": 2073,
      "åĵŃ": 2074,
      "æ¦»": 2075,
      "èĬ³èįī": 2076,
      "å¨Ľ": 2077,
      "ç¡": 2078,
      "å®¸": 2079,
      "å±Ģ": 2080,
      "ä¸Ģçīĩ": 2081,
      "æľīäºº": 2082,
      "è¡Ŀ": 2083,
      "éĢ¼": 2084,
      "éĢĥ": 2085,
      "å±±æ°´": 2086,
      "æµ¦": 2087,
      "å¥®": 2088,
      "ç¿Ķ": 2089,
      "å¹´å¹´": 2090,
      "è¿¥": 2091,
      "åĬī": 2092,
      "è¡Įäºº": 2093,
      "åĮª": 2094,
      "çĻ½é«®": 2095,
      "åĥ¹": 2096,
      "ç°«": 2097,
      "çĲħ": 2098,
      "çĳŁ": 2099,
      "çĵ¦": 2100,
      "åµĲ": 2101,
      "åªļ": 2102,
      "éģŃ": 2103,
      "åį¿": 2104,
      "å¹¶": 2105,
      "ä¸ĢæĹ¥": 2106,
      "éĢŁ": 2107,
      "æ±Ĺ": 2108,
      "åĭģ": 2109,
      "çīĢ": 2110,
      "æĺ¥ä¾Ĩ": 2111,
      "æľĪæĺİ": 2112,
      "åºĬ": 2113,
      "åºı": 2114,
      "ç¶º": 2115,
      "åĲĽçľĭ": 2116,
      "ä¸īåįģ": 2117,
      "æļī": 2118,
      "è¬Ľ": 2119,
      "å³¨": 2120,
      "å¢ľ": 2121,
      "éŁ¶": 2122,
      "æīģèĪŁ": 2123,
      "å¾Ĳ": 2124,
      "åĲī": 2125,
      "ä»Ĺ": 2126,
      "äººäºĭ": 2127,
      "ä¾į": 2128,
      "çĦ¡çª®": 2129,
      "éĢı": 2130,
      "æµ¸": 2131,
      "èĩªæĺ¯": 2132,
      "ç¥Ī": 2133,
      "å¼±": 2134,
      "çĻ½éłŃ": 2135,
      "èº¬": 2136,
      "çªģ": 2137,
      "åĩºéĸĢ": 2138,
      "æ¢¢": 2139,
      "æ¿¯": 2140,
      "éŃı": 2141,
      "èķª": 2142,
      "éºŁ": 2143,
      "é´ī": 2144,
      "èĨ½": 2145,
      "çĢŁ": 2146,
      "éĳĳ": 2147,
      "ä¸įåľ¨": 2148,
      "éĸ²": 2149,
      "å¯Ĳ": 2150,
      "å¦ĸ": 2151,
      "æīĩ": 2152,
      "ç©¹": 2153,
      "è³Ĭ": 2154,
      "ç¦į": 2155,
      "æĿ±è¥¿": 2156,
      "æ®·": 2157,
      "å¡µåľŁ": 2158,
      "æ½Ń": 2159,
      "èħ°": 2160,
      "é¶ĳ": 2161,
      "åħŃæľĪ": 2162,
      "çŀ»": 2163,
      "éģĻ": 2164,
      "ä½į": 2165,
      "ä»²": 2166,
      "ä»ķ": 2167,
      "ä¹į": 2168,
      "æ¸ļ": 2169,
      "ç´į": 2170,
      "æīĥ": 2171,
      "ä½ķä»¥": 2172,
      "åĩł": 2173,
      "çī½": 2174,
      "ç¥Ĺ": 2175,
      "æĺ¥èī²": 2176,
      "æ²½": 2177,
      "æģ°": 2178,
      "æ»¯": 2179,
      "ä¸ĸäºĭ": 2180,
      "é¤Ĳ": 2181,
      "æ¹¯": 2182,
      "åĺĨ": 2183,
      "åĲŁè©©": 2184,
      "çµĤæĹ¥": 2185,
      "èĦ©": 2186,
      "å´Ķ": 2187,
      "è¢Ĥ": 2188,
      "è¢į": 2189,
      "ä¸¹éĿĴ": 2190,
      "èł¶": 2191,
      "èľĤ": 2192,
      "éĪŀ": 2193,
      "æĺĮ": 2194,
      "ä»ĭ": 2195,
      "çĽŁ": 2196,
      "èĢ¿": 2197,
      "å¦»": 2198,
      "æ¸Ľ": 2199,
      "èĬĴ": 2200,
      "ä½ķå¿ħ": 2201,
      "å£ŀ": 2202,
      "èµ«": 2203,
      "éĨĩ": 2204,
      "èĤĨ": 2205,
      "èĤī": 2206,
      "èĤĿ": 2207,
      "æ¿±": 2208,
      "è¾¦": 2209,
      "æ£ĭ": 2210,
      "åĥħ": 2211,
      "åĥı": 2212,
      "åĽĽæĻĤ": 2213,
      "éŁĵ": 2214,
      "åĪĨæĺİ": 2215,
      "èĺļ": 2216,
      "è½į": 2217,
      "é§Ń": 2218,
      "éĬ·": 2219,
      "æĲľ": 2220,
      "æįĲ": 2221,
      "æ´ŀåºŃ": 2222,
      "è®ĢæĽ¸": 2223,
      "åħĢ": 2224,
      "åı¬": 2225,
      "ä¸įçĽ¸": 2226,
      "éģ¸": 2227,
      "èĩĤ": 2228,
      "ä¸ĢæŀĿ": 2229,
      "å¯°": 2230,
      "çĦ¡äºĭ": 2231,
      "éłĮ": 2232,
      "æ··": 2233,
      "é¦¨": 2234,
      "ç©©": 2235,
      "ç¶¸": 2236,
      "ç¶¿": 2237,
      "æħ·": 2238,
      "ç¬Ļ": 2239,
      "èºį": 2240,
      "ä¸ĸéĸĵ": 2241,
      "æŁ´": 2242,
      "èĹ©": 2243,
      "èĹī": 2244,
      "éĥ¨": 2245,
      "è±ĪçĦ¡": 2246,
      "æłª": 2247,
      "èŁ¾": 2248,
      "èĨļ": 2249,
      "æª»": 2250,
      "éĭĴ": 2251,
      "âĸ¡âĸ¡": 2252,
      "éĽ»": 2253,
      "äººå®¶": 2254,
      "å¦Ĥä»Ĭ": 2255,
      "èĩªåı¤": 2256,
      "å¸¥": 2257,
      "è¨Ĺ": 2258,
      "èĭĹ": 2259,
      "åīª": 2260,
      "æľªèĥ½": 2261,
      "è²«": 2262,
      "æ»Į": 2263,
      "åŁ½": 2264,
      "èĳĽ": 2265,
      "æĭ¾": 2266,
      "å»Ĭ": 2267,
      "æ¢§": 2268,
      "èĴ¿": 2269,
      "é¬ļ": 2270,
      "éĮ¯": 2271,
      "éº¾": 2272,
      "å´ĳ": 2273,
      "å¤ªå¹³": 2274,
      "æĥŁæľī": 2275,
      "è¹Ħ": 2276,
      "éĬľ": 2277,
      "æħ·æħ¨": 2278,
      "æľ½": 2279,
      "å®¦": 2280,
      "ä¸įåĪ°": 2281,
      "å±Ĳ": 2282,
      "ä¹³": 2283,
      "æ°Ľ": 2284,
      "èĬ½": 2285,
      "éł¹": 2286,
      "æķĪ": 2287,
      "å¥ļ": 2288,
      "çī¢": 2289,
      "è±¹": 2290,
      "åº§": 2291,
      "åº¸": 2292,
      "åĲĽä¸įè¦ĭ": 2293,
      "æģ¥": 2294,
      "æģŃ": 2295,
      "é¡¯": 2296,
      "å¼¦": 2297,
      "å¤ļå°ĳ": 2298,
      "åĢ¼": 2299,
      "èĹľ": 2300,
      "åģĥ": 2301,
      "ç¹©": 2302,
      "èĲ½æĹ¥": 2303,
      "æ¶µ": 2304,
      "æĳĺ": 2305,
      "è»Ĭé¦¬": 2306,
      "é·¹": 2307,
      "ä¸Īå¤«": 2308,
      "é¯¨": 2309,
      "æĸ§": 2310,
      "æĹ¨": 2311,
      "å¯¡": 2312,
      "å¯µ": 2313,
      "é¢¨æľĪ": 2314,
      "éĻĦ": 2315,
      "ä½ķæĹ¥": 2316,
      "æĪĳä¾Ĩ": 2317,
      "ä¿İ": 2318,
      "è¿Ĥ": 2319,
      "æħİ": 2320,
      "çį¸": 2321,
      "æĭ³": 2322,
      "çĮĽ": 2323,
      "éĨľ": 2324,
      "èİ½": 2325,
      "è£ģ": 2326,
      "åįĹåĮĹ": 2327,
      "æĵĩ": 2328,
      "èĮĤ": 2329,
      "çĥ¹": 2330,
      "æ¡Ī": 2331,
      "åĵ¦": 2332,
      "å°ĳå¹´": 2333,
      "çºĵ": 2334,
      "çĭ¼": 2335,
      "çĭĢ": 2336,
      "çĭĲ": 2337,
      "çĵľ": 2338,
      "è°¿": 2339,
      "ç¼º": 2340,
      "å®³": 2341,
      "ä¸įåıĬ": 2342,
      "éģ½": 2343,
      "ä½Ĳ": 2344,
      "å¹»": 2345,
      "å¯¢": 2346,
      "åŃ£": 2347,
      "åĪĳ": 2348,
      "èĬ¬": 2349,
      "æĿı": 2350,
      "æĦĪ": 2351,
      "ä½ķæīĢ": 2352,
      "æ±Ļ": 2353,
      "æĹ¥æĹ¥": 2354,
      "å¸·": 2355,
      "ç§ĳ": 2356,
      "éľı": 2357,
      "åı¯ä»¥": 2358,
      "ä¸Ĭä¸ĭ": 2359,
      "çĽ¸æĢĿ": 2360,
      "è¼Ķ": 2361,
      "ç¶µ": 2362,
      "åł¤": 2363,
      "æ¼²": 2364,
      "è©©äºº": 2365,
      "è©©æĽ¸": 2366,
      "åĢī": 2367,
      "æĿ±åįĹ": 2368,
      "çŃµ": 2369,
      "éŃĦ": 2370,
      "æĵ²": 2371,
      "å¹¾æĻĤ": 2372,
      "å³½": 2373,
      "ç°¿": 2374,
      "é§Ĳ": 2375,
      "éĺ²": 2376,
      "åµ¬": 2377,
      "éĽį": 2378,
      "æĺĤ": 2379,
      "ä¸įèŃĺ": 2380,
      "ä¸įå¿į": 2381,
      "åįļ": 2382,
      "æĪļ": 2383,
      "ä¸Ģå¤ľ": 2384,
      "éĩĭ": 2385,
      "éĿĦ": 2386,
      "å¦Ŀ": 2387,
      "éĢĿ": 2388,
      "èĬĻ": 2389,
      "æķĳ": 2390,
      "å¥ª": 2391,
      "æ³°": 2392,
      "èĬ±éĸĭ": 2393,
      "éľ½": 2394,
      "æĢ¯": 2395,
      "ä¿Ĭ": 2396,
      "è²¬": 2397,
      "åĤ²": 2398,
      "æ±ŁéłŃ": 2399,
      "æĤħ": 2400,
      "äº¦ä¸į": 2401,
      "çįµ": 2402,
      "å¤ľæ·±": 2403,
      "å¾ŀä¾Ĩ": 2404,
      "é©Ľ": 2405,
      "è¥¿æ¹ĸ": 2406,
      "ç²§": 2407,
      "ç²²": 2408,
      "çĻ¾éĩĮ": 2409,
      "æ£ĺ": 2410,
      "åĴĦ": 2411,
      "æı¡": 2412,
      "æ½ľ": 2413,
      "çģĺ": 2414,
      "ç¸Ī": 2415,
      "è¡£åĨł": 2416,
      "é¼ł": 2417,
      "ç½ª": 2418,
      "ç´ħå¡µ": 2419,
      "å¤ªå®Ī": 2420,
      "çĥŁéľŀ": 2421,
      "å²³": 2422,
      "å¾Ģå¾Ģ": 2423,
      "å¤«åŃĲ": 2424,
      "ç¬¬ä¸Ģ": 2425,
      "éĽķ": 2426,
      "ä¸įçĦ¶": 2427,
      "æľīå®¢": 2428,
      "èªħ": 2429,
      "çķĶ": 2430,
      "çľ·": 2431,
      "ä½ķçĶ¨": 2432,
      "å¥´": 2433,
      "æ¨¡": 2434,
      "éľĩ": 2435,
      "éľĸ": 2436,
      "æŃ¤åľ°": 2437,
      "éĤĩ": 2438,
      "ç¿³": 2439,
      "çµ®": 2440,
      "çµ³": 2441,
      "åŁŁ": 2442,
      "è»Ģ": 2443,
      "æĸ°è©©": 2444,
      "çļİ": 2445,
      "åĴ½": 2446,
      "åĥ»": 2447,
      "çĵ¶": 2448,
      "çĬ¯": 2449,
      "åıĶ": 2450,
      "çĦļ": 2451,
      "æĪĪ": 2452,
      "èĩ¯": 2453,
      "äººæĥħ": 2454,
      "ä¸Ģèº«": 2455,
      "èĩªçĦ¶": 2456,
      "ç§§": 2457,
      "æ³¨": 2458,
      "éĤĪ": 2459,
      "çİĩ": 2460,
      "æľªå¿ħ": 2461,
      "ä¸īæľĪ": 2462,
      "æ´¾": 2463,
      "æĭĶ": 2464,
      "æĮī": 2465,
      "åįĬå¤ľ": 2466,
      "çĹĽ": 2467,
      "åħĴç«¥": 2468,
      "æ¡ĥæĿİ": 2469,
      "èĮ«èĮ«": 2470,
      "å¾§": 2471,
      "ä¸įæĪĲ": 2472,
      "ä¸įèĤ¯": 2473,
      "ä¸įå¦¨": 2474,
      "ä»ŀ": 2475,
      "å¹¹": 2476,
      "æĸĻ": 2477,
      "æĪį": 2478,
      "äººéĸĴ": 2479,
      "æĹ¬": 2480,
      "å·Ĵ": 2481,
      "çĪµ": 2482,
      "å±±ä¸ĭ": 2483,
      "æ¸´": 2484,
      "éł¼": 2485,
      "éłĨ": 2486,
      "æ¨ª": 2487,
      "è©ķ": 2488,
      "éļľ": 2489,
      "éľĵ": 2490,
      "èĭĳ": 2491,
      "æ²¾": 2492,
      "è²¯": 2493,
      "æ¼Ĩ": 2494,
      "æĺ¯éĿŀ": 2495,
      "ä»ĬæľĿ": 2496,
      "æ»ĭ": 2497,
      "èĳ©": 2498,
      "æ¢¯": 2499,
      "å®īçŁ¥": 2500,
      "ç¹Ķ": 2501,
      "æ½º": 2502,
      "éĦĻ": 2503,
      "å¹½äºº": 2504,
      "æĸ¯äºº": 2505,
      "èĶ¡": 2506,
      "éŀį": 2507,
      "éµł": 2508,
      "éĭ¤": 2509,
      "èĽŁé¾į": 2510,
      "è¡²åĥ§": 2511,
      "åħĭ": 2512,
      "åı©": 2513,
      "åı°": 2514,
      "å°Ĩ": 2515,
      "æĸĤ": 2516,
      "èĪľ": 2517,
      "ä¹ĸ": 2518,
      "é¢¨åīį": 2519,
      "åĪº": 2520,
      "éĻĮ": 2521,
      "çķ¢": 2522,
      "çĪ²æĪĳ": 2523,
      "æ¨£": 2524,
      "ç¾Į": 2525,
      "éļħ": 2526,
      "ä¼¸": 2527,
      "åĨ¤": 2528,
      "æ»ĳ": 2529,
      "æĤ´": 2530,
      "åįĥèĲ¬": 2531,
      "åĢ«": 2532,
      "èĤ²": 2533,
      "èĤĮ": 2534,
      "éĹ¢": 2535,
      "éĸĢåīį": 2536,
      "æĮ¹": 2537,
      "ä½ľè©©": 2538,
      "å§¬": 2539,
      "ç²Ĺ": 2540,
      "åĴ¸": 2541,
      "è±Īä¸į": 2542,
      "æŃ²å¯Ĵ": 2543,
      "ç¸®": 2544,
      "ç±Ł": 2545,
      "é¼»": 2546,
      "åĴĮæ°£": 2547,
      "è¹ĩ": 2548,
      "æĲĸ": 2549,
      "å¨¥": 2550,
      "éĳĴ": 2551,
      "èĭ±éĽĦ": 2552,
      "èĥ¡çĪ²": 2553,
      "éĪİ": 2554,
      "é°": 2555,
      "å®Ļ": 2556,
      "ä¸įçĽ¡": 2557,
      "å¹ħ": 2558,
      "åľŃ": 2559,
      "æĪ´": 2560,
      "èĪ¬": 2561,
      "ä¸ĢçĶŁ": 2562,
      "ä¸Ģå¹´": 2563,
      "ä¸ĢæľĿ": 2564,
      "å·´": 2565,
      "å·į": 2566,
      "èĢĢ": 2567,
      "å¤©æ¶¯": 2568,
      "çĪ²èª°": 2569,
      "ç«Ĭ": 2570,
      "æŃ¤å¿ĥ": 2571,
      "éĤĢ": 2572,
      "æĺ¥ç§ĭ": 2573,
      "è³´": 2574,
      "å¹´ä¾Ĩ": 2575,
      "æ¬¹": 2576,
      "æľªåĺĹ": 2577,
      "éħ¸": 2578,
      "æĺİæľĿ": 2579,
      "æĨ¤": 2580,
      "æĦıæ°£": 2581,
      "çį²": 2582,
      "æ¿Ľ": 2583,
      "æ°£è±¡": 2584,
      "çŃį": 2585,
      "é©ķ": 2586,
      "è±ĪçŁ¥": 2587,
      "ç°ĩ": 2588,
      "ç¸Ľ": 2589,
      "æ¾Ĩ": 2590,
      "éŁ»": 2591,
      "é½¡": 2592,
      "åŀ£": 2593,
      "èĴ¼èĴ¼": 2594,
      "çĶ±ä¾Ĩ": 2595,
      "éµ²": 2596,
      "å¬ī": 2597,
      "åĲİ": 2598,
      "ä¸įå¾ħ": 2599,
      "åįĵ": 2600,
      "ä¸Ģé»ŀ": 2601,
      "å·Ķ": 2602,
      "è¡¢": 2603,
      "éĻŁ": 2604,
      "æķ¬": 2605,
      "æĻĤç¯Ģ": 2606,
      "åĩ°": 2607,
      "çī²": 2608,
      "é¦¿": 2609,
      "æ¬¾": 2610,
      "çĽ¸å¾ŀ": 2611,
      "çĽ¸å°į": 2612,
      "åĨī": 2613,
      "éħį": 2614,
      "å·²çŁ£": 2615,
      "æ±Łä¸Ĭ": 2616,
      "æĤĶ": 2617,
      "ç¨ļ": 2618,
      "çªŁ": 2619,
      "è»¸": 2620,
      "æĭį": 2621,
      "å»ī": 2622,
      "éĨ«": 2623,
      "æŁ¯": 2624,
      "è£¹": 2625,
      "æ¹Ľ": 2626,
      "éĩįä¾Ĩ": 2627,
      "æĵħ": 2628,
      "æ£Ł": 2629,
      "åĥķ": 2630,
      "èĵī": 2631,
      "çģ£": 2632,
      "ç·´": 2633,
      "ç±Į": 2634,
      "çºı": 2635,
      "è½¡": 2636,
      "èĻĽç©º": 2637,
      "èĨł": 2638,
      "ç£Ĭ": 2639,
      "èĶ¬": 2640,
      "ä¾ĿèĪĬ": 2641,
      "çĤĬ": 2642,
      "éĺ»": 2643,
      "å¬Į": 2644,
      "æ»Ħæµ·": 2645,
      "æĺ¨å¤ľ": 2646,
      "èĬĻèĵī": 2647,
      "äºĴ": 2648,
      "æŃĩ": 2649,
      "å®«": 2650,
      "ä¸įåĲĮ": 2651,
      "äººçŁ¥": 2652,
      "ä¸Ģä½ķ": 2653,
      "çĶ«": 2654,
      "çĶ³": 2655,
      "é¢¨æ³¢": 2656,
      "æ¸Ń": 2657,
      "ä½ķæĽ¾": 2658,
      "æĻĤæĻĤ": 2659,
      "æ·³": 2660,
      "åĭĻ": 2661,
      "å¥ł": 2662,
      "åĩĭ": 2663,
      "çŁ¥éŁ³": 2664,
      "æŀī": 2665,
      "ç¶´": 2666,
      "æľªæĺĵ": 2667,
      "è¦ĭèªª": 2668,
      "åĤĳ": 2669,
      "èīĩ": 2670,
      "ä»Ĭåı¤": 2671,
      "åįĥéĩĳ": 2672,
      "ç¦±": 2673,
      "è¬ģ": 2674,
      "æºĿ": 2675,
      "çħĮ": 2676,
      "æ®µ": 2677,
      "é©¥": 2678,
      "éĩįéĻ½": 2679,
      "åģī": 2680,
      "çļ®": 2681,
      "åįģéĩĮ": 2682,
      "åįģäºĮ": 2683,
      "æ©ĺ": 2684,
      "èĴ¸": 2685,
      "çĮ¶æľª": 2686,
      "æ¡ĵ": 2687,
      "èŁ»": 2688,
      "åħĴå¥³": 2689,
      "ä»¤äºº": 2690,
      "çĢĳ": 2691,
      "æ¢¨": 2692,
      "ä¸įèĪĩ": 2693,
      "ä¸įä¼¼": 2694,
      "äººè¨Ģ": 2695,
      "ä¹ı": 2696,
      "çŁ¯": 2697,
      "åĪ®": 2698,
      "éĿ¡": 2699,
      "æµĦ": 2700,
      "ä½ķå¦¨": 2701,
      "èĩªçŁ¥": 2702,
      "å¸½": 2703,
      "ç«Ī": 2704,
      "ç«Ń": 2705,
      "éľĳ": 2706,
      "éĤģ": 2707,
      "ç©°": 2708,
      "å£ĺ": 2709,
      "è³Ģ": 2710,
      "æ¸ħé¦Ļ": 2711,
      "çĽ¸èĪĩ": 2712,
      "æļĿ": 2713,
      "åĮĨ": 2714,
      "åĸ¬": 2715,
      "åĸ®": 2716,
      "è«§": 2717,
      "èµ´": 2718,
      "èª°èĪĩ": 2719,
      "èª°å®¶": 2720,
      "æ¥ĵ": 2721,
      "æĭĪ": 2722,
      "æĭĭ": 2723,
      "åĿ¦": 2724,
      "è£Ŀ": 2725,
      "æĿ±å±±": 2726,
      "é©Ł": 2727,
      "è¥¿å±±": 2728,
      "åĴ«": 2729,
      "å¹¾åº¦": 2730,
      "å¤ĸçī©": 2731,
      "åĦ»": 2732,
      "ç¸·": 2733,
      "ä¹Ŀéĩį": 2734,
      "é§Ĵ": 2735,
      "å²Ĳ": 2736,
      "çĵ¢": 2737,
      "ç®Ń": 2738,
      "éª¸": 2739,
      "èł²": 2740,
      "èłŁ": 2741,
      "è®ĬåĮĸ": 2742,
      "éµ¬": 2743,
      "èıĬèĬ±": 2744,
      "æĸľéĻ½": 2745,
      "åĨ¥åĨ¥": 2746,
      "æ»Ħæµª": 2747,
      "éĸīéĸĢ": 2748,
      "ç¡¯": 2749,
      "å´Ķåµ¬": 2750,
      "å¤®": 2751,
      "å¤Ļ": 2752,
      "å¾Ļ": 2753,
      "å®Ľ": 2754,
      "å¹£": 2755,
      "çĦ¦": 2756,
      "æĻı": 2757,
      "ä¸ĢæĿ¯": 2758,
      "è¡«": 2759,
      "çķ¦": 2760,
      "å¤©æĦı": 2761,
      "æķ´": 2762,
      "æ±Ģ": 2763,
      "çĪ²åĲĽ": 2764,
      "è©İ": 2765,
      "é¦Ń": 2766,
      "æŃ¤èº«": 2767,
      "æĪĳäº¦": 2768,
      "ç§ĭèī²": 2769,
      "æĬĳ": 2770,
      "éĹĶ": 2771,
      "èĹ»": 2772,
      "éĿĴå¤©": 2773,
      "çĽ¡æĹ¥": 2774,
      "èŃ¦": 2775,
      "èŃ½": 2776,
      "æ¶ĵ": 2777,
      "å¹¾å¹´": 2778,
      "èħ¥": 2779,
      "ç¤Ļ": 2780,
      "æį²": 2781,
      "é¡Ķèī²": 2782,
      "æ¶Īæģ¯": 2783,
      "é±¸": 2784,
      "ä¸įä¾Ĩ": 2785,
      "çĽĥ": 2786,
      "äººçī©": 2787,
      "é¢¨éĽ²": 2788,
      "è¡Ľ": 2789,
      "å±±èī²": 2790,
      "çľĩ": 2791,
      "éłĳ": 2792,
      "åĩĪ": 2793,
      "çĪ²ä¹ĭ": 2794,
      "ä¸ŃåİŁ": 2795,
      "æŃ¤è¡Į": 2796,
      "ç©Ĩ": 2797,
      "çĽ¸æľĽ": 2798,
      "ç¶±": 2799,
      "è¡Įè·¯": 2800,
      "è¬¹": 2801,
      "æ´ĭ": 2802,
      "æĽ´æľī": 2803,
      "æ¿¡": 2804,
      "ç¯·": 2805,
      "èı²": 2806,
      "èıľ": 2807,
      "å¹³åľ°": 2808,
      "èĹ¹": 2809,
      "èĹį": 2810,
      "æĮ½": 2811,
      "éĩĳçŁ³": 2812,
      "åįģæĹ¥": 2813,
      "èĲ½èĬ±": 2814,
      "å³»": 2815,
      "åĦĺ": 2816,
      "åĲĳä¾Ĩ": 2817,
      "çı®": 2818,
      "çºį": 2819,
      "å²¡": 2820,
      "æºªå±±": 2821,
      "çĻ»é«ĺ": 2822,
      "æĲį": 2823,
      "ä¹ĥçŁ¥": 2824,
      "çĢĽ": 2825,
      "çĬĢ": 2826,
      "éıĺ": 2827,
      "å·¥å¤«": 2828,
      "èĵ¬èĲĬ": 2829,
      "éĭª": 2830,
      "è«ĩç¬ĳ": 2831,
      "åıĥå·®": 2832,
      "å®ĩå®Ļ": 2833,
      "ç¾ĪæĹħ": 2834,
      "ä¿¯ä»°": 2835,
      "åĲģåĹŁ": 2836,
      "åĴ«å°º": 2837,
      "ĤéĢ": 2838,
      "ãĢĶ": 2839,
      "ãĢķ": 2840,
      "å¤¾": 2841,
      "æŃĨ": 2842,
      "åı«": 2843,
      "ä¸įä½ľ": 2844,
      "ä¸įè¦º": 2845,
      "éĩĢ": 2846,
      "æµ´": 2847,
      "èªį": 2848,
      "æ¸¬": 2849,
      "æĹ¥å¤ľ": 2850,
      "ç§ĺ": 2851,
      "ä¸Ńæµģ": 2852,
      "çĶŁæĦı": 2853,
      "è¨ĵ": 2854,
      "ç¥ī": 2855,
      "éĤĤéĢ": 2856,
      "ç¿ħ": 2857,
      "æ²¿": 2858,
      "åīĬ": 2859,
      "è¿º": 2860,
      "çĽ¸è¦ĭ": 2861,
      "æ¼¾": 2862,
      "æ¼Ĥ": 2863,
      "æĨļ": 2864,
      "åı¤ä¾Ĩ": 2865,
      "è¶Ļ": 2866,
      "åĮł": 2867,
      "çĻ½çİī": 2868,
      "ç¬³": 2869,
      "è«Ĵ": 2870,
      "è¬ł": 2871,
      "æĶ¢": 2872,
      "èª°è¬Ĥ": 2873,
      "äº¦åı¯": 2874,
      "æĭĺ": 2875,
      "å¤ľéĽ¨": 2876,
      "æ¢µ": 2877,
      "èİĸ": 2878,
      "æŁĦ": 2879,
      "çŃĴ": 2880,
      "éĸĢå¤ĸ": 2881,
      "æĮĤ": 2882,
      "çĻ¾å°º": 2883,
      "å¹¾äºº": 2884,
      "æµ·ä¸Ĭ": 2885,
      "åĥŀ": 2886,
      "èĵĳ": 2887,
      "çģ½": 2888,
      "åĦ¼": 2889,
      "å¢Ł": 2890,
      "èĺĭ": 2891,
      "äºĮä¸ī": 2892,
      "åĹ¤": 2893,
      "èĦĤ": 2894,
      "ä¾¿æĺ¯": 2895,
      "èĶĵ": 2896,
      "é¡§æĪĳ": 2897,
      "éĪ´": 2898,
      "å©Ĩ": 2899,
      "æ·µæĺİ": 2900,
      "æ¼łæ¼ł": 2901,
      "éĢįéģ¥": 2902,
      "æ®·åĭ¤": 2903,
      "éĤĤéĢħ": 2904,
      "å±¯": 2905,
      "çĽį": 2906,
      "éĸ¨": 2907,
      "ä¸Ģè¦ĭ": 2908,
      "çĶķ": 2909,
      "å¦Ħ": 2910,
      "ç´º": 2911,
      "ç´Ĺ": 2912,
      "æķĿ": 2913,
      "æ·ª": 2914,
      "è¨İ": 2915,
      "ç¥Ń": 2916,
      "æĺ¥åħī": 2917,
      "æĪĳæ¬²": 2918,
      "åı¯çŁ¥": 2919,
      "æĩ¼": 2920,
      "åĮħ": 2921,
      "æİĢ": 2922,
      "ä»¥çĪ²": 2923,
      "åĳĪ": 2924,
      "èª°çĪ²": 2925,
      "æĬµ": 2926,
      "å¤§å¤«": 2927,
      "èģ²åĲį": 2928,
      "é¤Į": 2929,
      "éĨª": 2930,
      "æ·±èĻķ": 2931,
      "èĹ´": 2932,
      "èĮĥ": 2933,
      "èĮĹ": 2934,
      "æıŃ": 2935,
      "åĽĽæĸ¹": 2936,
      "ä½¿æĪĳ": 2937,
      "äºĮåįģ": 2938,
      "åĹļ": 2939,
      "èĨĿ": 2940,
      "æĴ²": 2941,
      "çĢ¾": 2942,
      "çĢī": 2943,
      "ä¾ĿçĦ¶": 2944,
      "åħ«æľĪ": 2945,
      "æĺ¨æĹ¥": 2946,
      "éĢįéģĻ": 2947,
      "å¾Ĥ": 2948,
      "å®°": 2949,
      "å®Į": 2950,
      "ä¸ĢéĨī": 2951,
      "æĽ³": 2952,
      "åĪĥ": 2953,
      "éĢķ": 2954,
      "å±±æ²³": 2955,
      "æ·Ĵ": 2956,
      "åĩ½": 2957,
      "èĻľ": 2958,
      "è¨Ł": 2959,
      "ä¿Ľ": 2960,
      "æ²¸": 2961,
      "æŀ¶": 2962,
      "åĨķ": 2963,
      "åĤħ": 2964,
      "æģ£": 2965,
      "é»¯": 2966,
      "èĢģç¿ģ": 2967,
      "é«ĺé¢¨": 2968,
      "é«ĺæ¨ĵ": 2969,
      "èĲ¬ä¸ĸ": 2970,
      "éģĵè·¯": 2971,
      "çįĦ": 2972,
      "æĭĦ": 2973,
      "æºĸ": 2974,
      "ç¯Ĩ": 2975,
      "éĿŀæīĢ": 2976,
      "é©Ĺ": 2977,
      "æĵļ": 2978,
      "ç²¹": 2979,
      "åĴ¨": 2980,
      "å¹¾ä½ķ": 2981,
      "çĮ¶æľī": 2982,
      "éłĪçŁ¥": 2983,
      "å¢³": 2984,
      "çĳ©": 2985,
      "æ¦Ĩ": 2986,
      "å¶Ĥ": 2987,
      "éĬĺ": 2988,
      "é·Ħ": 2989,
      "ä¹ĺèĪĪ": 2990,
      "èĽĻ": 2991,
      "çĬ¢": 2992,
      "çĬģ": 2993,
      "æªľ": 2994,
      "æĨ¶æĺĶ": 2995,
      "è¸Ī": 2996,
      "æ§Ĳ": 2997,
      "éµĳ": 2998,
      "äºİä»Ĭ": 2999,
      "çĪ¶èĢģ": 3000,
      "ç¸±æ©«": 3001,
      "è´ı": 3002,
      "åº¶å¹¾": 3003,
      "éĽĽ": 3004,
      "çĽ§": 3005,
      "å·µ": 3006,
      "çĦ¡å¾©": 3007,
      "çĦ¡å¥Ī": 3008,
      "çĦ¡éĻĲ": 3009,
      "å¤©å¤ĸ": 3010,
      "å¤©çľŁ": 3011,
      "éłĲ": 3012,
      "ç§ī": 3013,
      "èĻĶ": 3014,
      "æĥ±": 3015,
      "æĥ»": 3016,
      "è¨£": 3017,
      "éľ¸": 3018,
      "è³Ĵ": 3019,
      "æ²Ĳ": 3020,
      "åīĿ": 3021,
      "åºµ": 3022,
      "åĬª": 3023,
      "èĥ¥": 3024,
      "æħ£": 3025,
      "å¼Ĭ": 3026,
      "çĻ½é¦ĸ": 3027,
      "æ±Łæ°´": 3028,
      "æ±ŁæĿ±": 3029,
      "è¬«": 3030,
      "æĶ»": 3031,
      "é³©": 3032,
      "è»Ł": 3033,
      "åĢį": 3034,
      "ä¸ĸäºº": 3035,
      "ä¸ĸä¿Ĺ": 3036,
      "æĭ±": 3037,
      "æº¢": 3038,
      "çħ®": 3039,
      "çŃł": 3040,
      "éĿŀæĺ¯": 3041,
      "çļĦ": 3042,
      "é»Ħæĺı": 3043,
      "å³¶": 3044,
      "æłĹ": 3045,
      "é¬Ń": 3046,
      "æĿ¾æŁı": 3047,
      "çľ¼åīį": 3048,
      "éºĵ": 3049,
      "åłĤåłĤ": 3050,
      "çĨĬ": 3051,
      "æ²³æ¼¢": 3052,
      "æĴ¥": 3053,
      "æĴ¼": 3054,
      "èĽ©": 3055,
      "æĵ¾æĵ¾": 3056,
      "å·¦åı³": 3057,
      "æ²½éħĴ": 3058,
      "æŃŁ": 3059,
      "ä¸įèģŀ": 3060,
      "ä¸įåĭķ": 3061,
      "ä¸įåłª": 3062,
      "åįī": 3063,
      "å¹Ħ": 3064,
      "æĪª": 3065,
      "æĪŁ": 3066,
      "éĸ¬": 3067,
      "ä¾ĳ": 3068,
      "å¯Ľ": 3069,
      "å¯Ł": 3070,
      "çĶ·": 3071,
      "å·¡": 3072,
      "çĦ¡èĻķ": 3073,
      "çĦ¡æĥħ": 3074,
      "æľīç¥ŀ": 3075,
      "é¢¨åħī": 3076,
      "å¦ĥ": 3077,
      "å±±éłŃ": 3078,
      "æµĻ": 3079,
      "ç´³": 3080,
      "æķ·": 3081,
      "æ±¡": 3082,
      "å¥ķ": 3083,
      "èĩªæĺĶ": 3084,
      "ç¾²": 3085,
      "ç¾¹": 3086,
      "æ³ł": 3087,
      "èĬ±èĲ½": 3088,
      "éľ°": 3089,
      "æŃ¤åİ»": 3090,
      "æ¸ħæĺİ": 3091,
      "ä¸Ĭå¸Ŀ": 3092,
      "è¿¢": 3093,
      "åĨ¶": 3094,
      "äºĭæ¥Ń": 3095,
      "æľªçŁ¥": 3096,
      "åŃĲåŃ«": 3097,
      "æģ¬": 3098,
      "æĺİå¹´": 3099,
      "ä¸īåįĥ": 3100,
      "èĲ¬è±¡": 3101,
      "æħµ": 3102,
      "éĽ¨éģİ": 3103,
      "å¼ı": 3104,
      "æİ¾": 3105,
      "åŁ¹": 3106,
      "æ±Łæµ·": 3107,
      "æĤī": 3108,
      "ç¨ľ": 3109,
      "è««": 3110,
      "è¬³": 3111,
      "è»ĭ": 3112,
      "çŃĩ": 3113,
      "é©Ĥ": 3114,
      "è¾Ł": 3115,
      "æĵĶ": 3116,
      "çĻ¾èĲ¬": 3117,
      "åĲ¾éģĵ": 3118,
      "åĥļ": 3119,
      "ç¢Į": 3120,
      "èĸĩ": 3121,
      "é¬¬": 3122,
      "ç±³": 3123,
      "ä½¿åĲĽ": 3124,
      "æķħéĦī": 3125,
      "æ³¢æ¿¤": 3126,
      "æĸ¯æ°ĳ": 3127,
      "æį¨": 3128,
      "æį·": 3129,
      "æª£": 3130,
      "æªĦ": 3131,
      "æ»ĦæºŁ": 3132,
      "æ´ĽéĻ½": 3133,
      "é¬¼ç¥ŀ": 3134,
      "æ»Ķæ»Ķ": 3135,
      "ĶæĤ´": 3136,
      "ä¸įå®¹": 3137,
      "ä¸įå¿ħ": 3138,
      "å±¨": 3139,
      "çĽ£": 3140,
      "äººæĦı": 3141,
      "å¿Į": 3142,
      "ä¸Ģèģ²": 3143,
      "ä¸Ģè¨Ģ": 3144,
      "å·«": 3145,
      "çĪ°": 3146,
      "æľīæĦı": 3147,
      "é¢¨èµ·": 3148,
      "é¢¨éľľ": 3149,
      "éĿ©": 3150,
      "éĻĽ": 3151,
      "æĦ´": 3152,
      "å¤©åħ¬": 3153,
      "ç´ĭ": 3154,
      "æī£": 3155,
      "åĩŃ": 3156,
      "ä¸Ńç§ĭ": 3157,
      "éľĨ": 3158,
      "æŃ¤èĬ±": 3159,
      "æŃ¤äºĭ": 3160,
      "é«¯": 3161,
      "åİ²": 3162,
      "å¾ĹæĦı": 3163,
      "æĺ¥æĦı": 3164,
      "æĢ¡": 3165,
      "è¿°": 3166,
      "çĽ¸æľŁ": 3167,
      "è±«": 3168,
      "åĲĽå®¶": 3169,
      "è²º": 3170,
      "æģĥ": 3171,
      "è¡Įè¡Į": 3172,
      "ä»Ĭäºº": 3173,
      "æļ´": 3174,
      "æĨĶæĤ´": 3175,
      "å¼Ķ": 3176,
      "åĮ£": 3177,
      "æİĪ": 3178,
      "çªĦ": 3179,
      "ç©ºå±±": 3180,
      "èĳ¦": 3181,
      "æºľ": 3182,
      "éĿĴæĺ¥": 3183,
      "åįĹåľĭ": 3184,
      "çļĵ": 3185,
      "èŃı": 3186,
      "éĻ½æĺ¥": 3187,
      "åĽĽéĿ¢": 3188,
      "çģĮ": 3189,
      "åĲŁåĵ¦": 3190,
      "çĲ¢": 3191,
      "å¢ĵ": 3192,
      "æŃĮèĪŀ": 3193,
      "é¾įèĽĩ": 3194,
      "åĽŀéłŃ": 3195,
      "ç±ĥ": 3196,
      "çıĬ": 3197,
      "è®ĵ": 3198,
      "äºĮæľĪ": 3199,
      "åĮĹé¢¨": 3200,
      "çµĤèº«": 3201,
      "å´Ļ": 3202,
      "åłĤä¸Ĭ": 3203,
      "é´Ľ": 3204,
      "æ¨ĵèĩº": 3205,
      "å°ĭå¸¸": 3206,
      "è¹Ī": 3207,
      "ä½ĨæģĲ": 3208,
      "æĤ²æŃĮ": 3209,
      "ç£¬": 3210,
      "é¥Ĺ": 3211,
      "æ§ģ": 3212,
      "èģĸè³¢": 3213,
      "èŀº": 3214,
      "ç´°éĽ¨": 3215,
      "åı¢æŀĹ": 3216,
      "è¤Ĵ": 3217,
      "åĩľåĩľ": 3218,
      "ç°¿æĽ¸": 3219,
      "åĬªåĬĽ": 3220,
      "éģģ": 3221,
      "å±¹": 3222,
      "å±ĳ": 3223,
      "éĸĻ": 3224,
      "å¿Ŀ": 3225,
      "çĦ¡çĶ±": 3226,
      "æľīå¦Ĥ": 3227,
      "æľīéħĴ": 3228,
      "éĢĻ": 3229,
      "æĿ¥": 3230,
      "ç´Ĩ": 3231,
      "æ·«": 3232,
      "å¦ĤéĽ²": 3233,
      "æĹ¥æļ®": 3234,
      "çī¡": 3235,
      "çīĸ": 3236,
      "çĶŁæ¶¯": 3237,
      "ç¥ļ": 3238,
      "å¾Ĺä¹ĭ": 3239,
      "æ²¹": 3240,
      "éħ·": 3241,
      "è²¡": 3242,
      "æģķ": 3243,
      "æ¼¿": 3244,
      "å½¥": 3245,
      "è¡Įæ¨Ĥ": 3246,
      "é«ĺåį§": 3247,
      "å¡Ķ": 3248,
      "ä¸īå°º": 3249,
      "æħĻ": 3250,
      "éķ·åĺ¯": 3251,
      "åĮĿ": 3252,
      "ç¬ł": 3253,
      "ç¨·": 3254,
      "ç¨¼": 3255,
      "æĬĹ": 3256,
      "åĢı": 3257,
      "å¤ľæľĪ": 3258,
      "æĽ´çĦ¡": 3259,
      "èĻķèĻķ": 3260,
      "åķĦ": 3261,
      "åĿİ": 3262,
      "æ¹§": 3263,
      "è¥¿åįĹ": 3264,
      "ç¥ŀä¹ĭ": 3265,
      "éŃĶ": 3266,
      "ç²±": 3267,
      "èŃ¬": 3268,
      "è±Īæĺĵ": 3269,
      "å¥½äºĭ": 3270,
      "åĲ¾èģŀ": 3271,
      "èķĥ": 3272,
      "çį¨å¾Ģ": 3273,
      "æŀĹä¸ĭ": 3274,
      "çĲ³": 3275,
      "ä»Ļäºº": 3276,
      "æĿ¾é¢¨": 3277,
      "éĽĸæľī": 3278,
      "æĩ·æĬ±": 3279,
      "ç½į": 3280,
      "å´©": 3281,
      "é§¿": 3282,
      "é§Ł": 3283,
      "å®¹æĺĵ": 3284,
      "èŁĦ": 3285,
      "çĨı": 3286,
      "çłĮ": 3287,
      "çĵı": 3288,
      "ç¿łå¾®": 3289,
      "åħŃåįģ": 3290,
      "çķ«åľĸ": 3291,
      "èĶŃ": 3292,
      "åħ«åįģ": 3293,
      "è¸Ĳ": 3294,
      "å«©": 3295,
      "èĢ³çĽ®": 3296,
      "æŃİæģ¯": 3297,
      "é¹½": 3298,
      "ç¿©ç¿©": 3299,
      "å´ĳå´Ļ": 3300,
      "·å½": 3301,
      "éĽī": 3302,
      "æŃĽ": 3303,
      "æĺ§": 3304,
      "å°¹": 3305,
      "å°¼": 3306,
      "æĹĥ": 3307,
      "æĹı": 3308,
      "çĦ¡ç«¯": 3309,
      "æľīçĦ¡": 3310,
      "æľīæŃ¤": 3311,
      "çŁ¢": 3312,
      "éĢĭ": 3313,
      "éĻĤ": 3314,
      "æĦľ": 3315,
      "å¤©æĻĤ": 3316,
      "çľ¸": 3317,
      "ä½ķæľī": 3318,
      "ä½ķå¹´": 3319,
      "ä½ķçķ¶": 3320,
      "èĲĮ": 3321,
      "åĽĤ": 3322,
      "æĥĨ": 3323,
      "æĥļ": 3324,
      "éļĻ": 3325,
      "é£¾": 3326,
      "åı¯æĥľ": 3327,
      "æ¬½": 3328,
      "æ²ĥ": 3329,
      "çĽ¸çŁ¥": 3330,
      "è±Ķ": 3331,
      "åº¾": 3332,
      "ç¶¬": 3333,
      "æľªåħį": 3334,
      "åĲĽçİĭ": 3335,
      "è²¢": 3336,
      "å½·å½": 3337,
      "é»İ": 3338,
      "èĢģä¾Ĩ": 3339,
      "èĢģåŃĲ": 3340,
      "èĢģè¾²": 3341,
      "æ»Ĥ": 3342,
      "åı¤æľ¨": 3343,
      "åħ¶éĸĵ": 3344,
      "è¬¨": 3345,
      "è·³": 3346,
      "æ¯Ĵ": 3347,
      "ç¯Ļ": 3348,
      "çŃĭ": 3349,
      "å¾ŀä»Ĭ": 3350,
      "æĮº": 3351,
      "åĪ°æŃ¤": 3352,
      "æ¶²": 3353,
      "åĲĮä¸Ģ": 3354,
      "å¹¾æĹ¥": 3355,
      "é¾Ĳ": 3356,
      "èģŀéģĵ": 3357,
      "åĽĽåįģ": 3358,
      "åĦĦ": 3359,
      "å¢Ģ": 3360,
      "èĺĤ": 3361,
      "å¤¢ä¸Ń": 3362,
      "ä½¿èĢħ": 3363,
      "è½Ł": 3364,
      "ç¯Ģçī©": 3365,
      "çĳķ": 3366,
      "çĶ°åľĴ": 3367,
      "èķŃçĦ¶": 3368,
      "å¨Ł": 3369,
      "æĴŃ": 3370,
      "æĦŁæħ¨": 3371,
      "çĿĢ": 3372,
      "å¯Ĥå¯¥": 3373,
      "æ®Ĭæľª": 3374,
      "å«ģ": 3375,
      "å£¯å£«": 3376,
      "éıĹ": 3377,
      "åĨ°éĽª": 3378,
      "èĻİè±¹": 3379,
      "é³³åĩ°": 3380,
      "æĥ³è¦ĭ": 3381,
      "åµ©": 3382,
      "æ¨½éħĴ": 3383,
      "å½·å½¿": 3384,
      "äºŁ": 3385,
      "å¤Ń": 3386,
      "éģ¼": 3387,
      "ä½ł": 3388,
      "éĸ©": 3389,
      "æĹĦ": 3390,
      "æĹĨ": 3391,
      "ä¾¶": 3392,
      "çĦ¡çĸĨ": 3393,
      "éĩĲ": 3394,
      "æľīéģĵ": 3395,
      "é¢¨çī©": 3396,
      "é¢¨éľ²": 3397,
      "è¡Ĺ": 3398,
      "éĿĻ": 3399,
      "å±±åīį": 3400,
      "èª²": 3401,
      "æĿ¿": 3402,
      "å¤©å¯Ĵ": 3403,
      "åĭĴ": 3404,
      "èĩªåľ¨": 3405,
      "å¸Ľ": 3406,
      "èĻ§": 3407,
      "èĻ¬": 3408,
      "ç«ĩ": 3409,
      "çīĭ": 3410,
      "æ³ĵ": 3411,
      "æŃ¤æĦı": 3412,
      "æĺ¥æ·±": 3413,
      "æĪĳçĶŁ": 3414,
      "æĪĳå¿ĥ": 3415,
      "çµ¡": 3416,
      "ä¸Ĭå¤©": 3417,
      "æ²¼": 3418,
      "æ²ĸ": 3419,
      "è¿¸": 3420,
      "åłµ": 3421,
      "æģ¤": 3422,
      "èĪĩåĲĽ": 3423,
      "é«ĺå±±": 3424,
      "ä¸īæĹ¥": 3425,
      "èĲ¬éłĥ": 3426,
      "çĻ½é·Ĺ": 3427,
      "çĻ½é«ª": 3428,
      "æ±Łæ¼¢": 3429,
      "è¥²": 3430,
      "é³§": 3431,
      "å¤ļè¬Ŀ": 3432,
      "åīįæĹ¥": 3433,
      "æ¥«": 3434,
      "é¤ĵ": 3435,
      "èı´": 3436,
      "è£¾": 3437,
      "æĿ±ç±¬": 3438,
      "éĥµ": 3439,
      "æĮ¾": 3440,
      "ç¥ŀæĺİ": 3441,
      "çĥ½": 3442,
      "åħīéĻ°": 3443,
      "æŃ£æĺ¯": 3444,
      "å³Ń": 3445,
      "æĸĩåŃĹ": 3446,
      "éĦŃ": 3447,
      "æł¡": 3448,
      "éĩİäºº": 3449,
      "ç½Ķ": 3450,
      "åĹľ": 3451,
      "èĦ±": 3452,
      "æ¦Ľ": 3453,
      "å¿ĺè¨Ģ": 3454,
      "çĨĴ": 3455,
      "å²ĳ": 3456,
      "çĽ®åīį": 3457,
      "æĦŁæ¿Ģ": 3458,
      "çĤ¯": 3459,
      "è¸°": 3460,
      "éŀĭ": 3461,
      "æ³¥å¡Ĺ": 3462,
      "ä»ĸæĹ¥": 3463,
      "çĪ¶æ¯į": 3464,
      "æŀķä¸Ĭ": 3465,
      "å¿łç¾©": 3466,
      "å¥Ķèµ°": 3467,
      "éĤ£å¾Ĺ": 3468,
      "æ¨½åīį": 3469,
      "èįĨæ£ĺ": 3470,
      "å¯¥å¯¥": 3471,
      "åĦªæ¸¸": 3472,
      "æ·¹çķĻ": 3473,
      "è´ıå¾Ĺ": 3474,
      "æĥĨæĤµ": 3475,
      "åħĨ": 3476,
      "åĲł": 3477,
      "ä¸įä»¥": 3478,
      "ä¸įç¦ģ": 3479,
      "åįĶ": 3480,
      "çĽ¼": 3481,
      "æĻ®": 3482,
      "æ°Ī": 3483,
      "è¡·": 3484,
      "éł·": 3485,
      "ä½ķçī©": 3486,
      "ä½ķçĶ±": 3487,
      "å¦Ĥæľī": 3488,
      "èĩªå¾Ĺ": 3489,
      "èĩªè¶³": 3490,
      "è©¢": 3491,
      "è©³": 3492,
      "é¦´": 3493,
      "æ³¯": 3494,
      "æ³Ĺ": 3495,
      "æĥĳ": 3496,
      "éļĬ": 3497,
      "åİ¨": 3498,
      "éĤ±": 3499,
      "ç¿¹": 3500,
      "çĽ¸è¦ª": 3501,
      "è±İ": 3502,
      "èĥİ": 3503,
      "è²ŀ": 3504,
      "æ¼ª": 3505,
      "é¡Ĩ": 3506,
      "å½Ń": 3507,
      "èĢģäºº": 3508,
      "æĺİæĹ¥": 3509,
      "å¡¢": 3510,
      "ç§ĭä¾Ĩ": 3511,
      "æļĦ": 3512,
      "è¬¬": 3513,
      "æĬ½": 3514,
      "éģĵäºº": 3515,
      "å®¶æľī": 3516,
      "æ¢³": 3517,
      "çħİ": 3518,
      "è£½": 3519,
      "éĥ¢": 3520,
      "å¾ŀå®¹": 3521,
      "å¾ŀæķĻ": 3522,
      "é©ª": 3523,
      "çķ¶æĹ¥": 3524,
      "ç¹Ń": 3525,
      "çľĭèĬ±": 3526,
      "æıĸ": 3527,
      "éĽªæ»¿": 3528,
      "èĵ¼": 3529,
      "åĦĶ": 3530,
      "ç¬ĳèªŀ": 3531,
      "èĸª": 3532,
      "å¤¢éŃĤ": 3533,
      "éĽĸçĦ¶": 3534,
      "æķ¸èģ²": 3535,
      "äºĶåįģ": 3536,
      "åĹ£": 3537,
      "çºľ": 3538,
      "çĳ£": 3539,
      "é§¡": 3540,
      "æ¦Ń": 3541,
      "é´Ł": 3542,
      "èĬ³èı²": 3543,
      "è¿ĳä¾Ĩ": 3544,
      "å²«": 3545,
      "éĢ¢äºº": 3546,
      "å¾Ģäºĭ": 3547,
      "æľ¬çĦ¡": 3548,
      "èķŃæ¢Ŀ": 3549,
      "æ±łä¸Ĭ": 3550,
      "èĽ¾": 3551,
      "çĿ¨": 3552,
      "æį§": 3553,
      "æį«": 3554,
      "éĺ®": 3555,
      "èģĸäºº": 3556,
      "éĻ³è¿¹": 3557,
      "æĬĬéħĴ": 3558,
      "çŀ³": 3559,
      "éİ¸": 3560,
      "è¨ĺå¾Ĺ": 3561,
      "éīŀ": 3562,
      "ç³§": 3563,
      "é¯ī": 3564,
      "éłĥåĪ»": 3565,
      "çĢŁæ¹ĺ": 3566,
      "åħĩ": 3567,
      "ä¸įæľ½": 3568,
      "éģŀ": 3569,
      "å°ī": 3570,
      "äººä¸į": 3571,
      "éĸŁ": 3572,
      "èĪĤ": 3573,
      "ä¸Ģæ°´": 3574,
      "ä¸ĢæĹ¦": 3575,
      "çĦ¡æĻĤ": 3576,
      "çĦ¡åľ°": 3577,
      "çĦ¡æķ¸": 3578,
      "èĢ½": 3579,
      "æľīæīĢ": 3580,
      "å±±éĻ½": 3581,
      "èªĵ": 3582,
      "å¤©æ°£": 3583,
      "çľº": 3584,
      "ä½ķè¶³": 3585,
      "æĹ¥å·²": 3586,
      "ç§©": 3587,
      "ç§Ł": 3588,
      "æ¨Ĭ": 3589,
      "è©£": 3590,
      "è©«": 3591,
      "ç©¶": 3592,
      "æĪĳæľī": 3593,
      "ç¿®": 3594,
      "çİ²": 3595,
      "ä¹ĭåŃĲ": 3596,
      "åĨĢ": 3597,
      "ç¶ĥ": 3598,
      "æľªè¦ĭ": 3599,
      "åłŀ": 3600,
      "æ¼£": 3601,
      "å½İ": 3602,
      "èĢģåİ»": 3603,
      "æĺİçıł": 3604,
      "ä¸īå¾ĳ": 3605,
      "æħŁ": 3606,
      "åı¤é¢¨": 3607,
      "åı¤éģĵ": 3608,
      "éķ·é¢¨": 3609,
      "æİ¬": 3610,
      "åĸī": 3611,
      "è©©æĪĲ": 3612,
      "åĳĤ": 3613,
      "äº¦èĩª": 3614,
      "ä¸ĸä¸Ĭ": 3615,
      "æĭĨ": 3616,
      "èĤº": 3617,
      "èĹĿ": 3618,
      "éģłè¿ĳ": 3619,
      "è¥¿åĮĹ": 3620,
      "éŃģ": 3621,
      "æĸ¹çŁ¥": 3622,
      "æĵİ": 3623,
      "ç²Ĵ": 3624,
      "æµ·æ£ł": 3625,
      "å¥½é¢¨": 3626,
      "åĵ²": 3627,
      "èķĬ": 3628,
      "åĺ»": 3629,
      "åŁİéĥŃ": 3630,
      "å³Ļ": 3631,
      "åĦĤ": 3632,
      "åĦī": 3633,
      "èĪĬæĻĤ": 3634,
      "æłĸ": 3635,
      "æĿ¾ç«¹": 3636,
      "æµ®çĶŁ": 3637,
      "äºĮåįģå¹´": 3638,
      "æ¹ĸä¸Ĭ": 3639,
      "çľ¼æĺİ": 3640,
      "åĮĹçªĹ": 3641,
      "å´İ": 3642,
      "è³¢èĢħ": 3643,
      "çĭ¹": 3644,
      "åħĴåŃ«": 3645,
      "å²·": 3646,
      "å¾Ģä¾Ĩ": 3647,
      "èĨº": 3648,
      "åĮĸå·¥": 3649,
      "åĪ¥éĽ¢": 3650,
      "äºŃäºŃ": 3651,
      "å§ĭçŁ¥": 3652,
      "éĺ¡": 3653,
      "èĥ¡ä¸į": 3654,
      "åºķäºĭ": 3655,
      "çĺ´": 3656,
      "èĮħå±ĭ": 3657,
      "è²§è³¤": 3658,
      "æµ©èķ©": 3659,
      "éīı": 3660,
      "æĿľéµĳ": 3661,
      "éĹĮå¹²": 3662,
      "åĩĦåĩī": 3663,
      "ä¸įéģĵ": 3664,
      "ä¸įå¹³": 3665,
      "ä¸įæŃ»": 3666,
      "ä¸įé¡ĺ": 3667,
      "å¹¼": 3668,
      "èĩĨ": 3669,
      "çĽľ": 3670,
      "ä¾Ī": 3671,
      "å·³": 3672,
      "çĦ¡å¤ļ": 3673,
      "çĦ¡è¨Ģ": 3674,
      "é¢¨æĻ¯": 3675,
      "éĿĸ": 3676,
      "è¦©": 3677,
      "èģ¾": 3678,
      "å±±éĽ²": 3679,
      "å¤©é«ĺ": 3680,
      "éł¤": 3681,
      "ç´¹": 3682,
      "ä½ķè¨±": 3683,
      "æ±©": 3684,
      "æ±º": 3685,
      "åĭ»": 3686,
      "åĩ¶": 3687,
      "çĪ²åľĭ": 3688,
      "ç«ħ": 3689,
      "éĽ²éľ§": 3690,
      "é¦¥": 3691,
      "é«ĵ": 3692,
      "ç©İ": 3693,
      "æĺ¥äºĭ": 3694,
      "è³¸": 3695,
      "æ¸ħæºª": 3696,
      "åī©": 3697,
      "çĽ¸æĨ¶": 3698,
      "æ°´æµģ": 3699,
      "æ°´éĤĬ": 3700,
      "ä¹ĭäºº": 3701,
      "åĨĬ": 3702,
      "æľªæĩī": 3703,
      "è²½": 3704,
      "é»¨": 3705,
      "èĢģæĪĲ": 3706,
      "æĨİ": 3707,
      "æİ§": 3708,
      "æİī": 3709,
      "è©©åı¥": 3710,
      "åįĥæŃ²": 3711,
      "ç¦¦": 3712,
      "ç¦ĭ": 3713,
      "æĶ¬": 3714,
      "æĶľ": 3715,
      "é³¬": 3716,
      "æĬ¹": 3717,
      "èĳŃ": 3718,
      "èĤĩ": 3719,
      "ç¯¤": 3720,
      "æµģåħī": 3721,
      "éĿĴéĿĴ": 3722,
      "éģłéģĬ": 3723,
      "èº«ä¸ĸ": 3724,
      "æĮĳ": 3725,
      "çī©çĲĨ": 3726,
      "é£Ľé³¥": 3727,
      "çĻ¾ä¸ĸ": 3728,
      "å®īåı¯": 3729,
      "å®īè¶³": 3730,
      "çĮ¶åı¯": 3731,
      "çĮ¶åľ¨": 3732,
      "èįīåłĤ": 3733,
      "æ½ģ": 3734,
      "åĽĽå£ģ": 3735,
      "çľŁäºº": 3736,
      "æŃ²æĻļ": 3737,
      "å¾Įä¸ĸ": 3738,
      "åħ©ä¸ī": 3739,
      "ç·ĩ": 3740,
      "ç·ļ": 3741,
      "éļ¨åĪĨ": 3742,
      "åĿĲçľĭ": 3743,
      "ç½ħ": 3744,
      "éĮĲ": 3745,
      "å¿½çĦ¶": 3746,
      "çĳļ": 3747,
      "æ¦ľ": 3748,
      "å¾®é¢¨": 3749,
      "èĪĪäº¡": 3750,
      "å¤ªåı¤": 3751,
      "çª®éĢļ": 3752,
      "èŁ¹": 3753,
      "èħĲ": 3754,
      "è¼īéħĴ": 3755,
      "å¨ĳ": 3756,
      "ç£¯": 3757,
      "ç£´": 3758,
      "æĺŁæĸĹ": 3759,
      "å¯Ħèģ²": 3760,
      "çħĻéľŀ": 3761,
      "éĺľ": 3762,
      "æªĢ": 3763,
      "å½¢éª¸": 3764,
      "æĶ¶æĭ¾": 3765,
      "éµĿ": 3766,
      "åĤ¾èĵĭ": 3767,
      "ä»ĸæĻĤ": 3768,
      "åĺĹèģŀ": 3769,
      "è±Ĳå¹´": 3770,
      "å°ģä¾¯": 3771,
      "æ¼ģæ¨µ": 3772,
      "æµ©æŃĮ": 3773,
      "èļĬ": 3774,
      "çī¹åľ°": 3775,
      "é¢¯": 3776,
      "æģįæĥļ": 3777,
      "ç£ĬèĲ½": 3778,
      "çī¡ä¸¹": 3779,
      "å´İå¶": 3780,
      "ä¸ŀ": 3781,
      "äº¨": 3782,
      "ä¸įæĺĵ": 3783,
      "ä¸įå¿ĺ": 3784,
      "éģ¨": 3785,
      "ä½ĳ": 3786,
      "çĦ°": 3787,
      "æĸĽ": 3788,
      "æĸŁ": 3789,
      "äººä¸ĸ": 3790,
      "éĸ¶": 3791,
      "èĪª": 3792,
      "æĽ·": 3793,
      "å±±åĥ§": 3794,
      "èª¼": 3795,
      "å¤©é¢¨": 3796,
      "çľ©": 3797,
      "å¦Ĥå±±": 3798,
      "èĩªæĨĲ": 3799,
      "ç¾¸": 3800,
      "çĶŁæ°ĳ": 3801,
      "å¾Ĺå¤±": 3802,
      "è³¡": 3803,
      "çµ±": 3804,
      "æ¸ħç§ĭ": 3805,
      "ä¸Ĭæľī": 3806,
      "åī²": 3807,
      "è¿«": 3808,
      "è¼¦": 3809,
      "æ°´æ¸ħ": 3810,
      "ä¹ĭæīĢ": 3811,
      "æľĪä¸ĭ": 3812,
      "è¦ĭä¹ĭ": 3813,
      "èĪĩå¤©": 3814,
      "èī¾": 3815,
      "æŃ¸å¿ĥ": 3816,
      "é«ĺäºº": 3817,
      "é«ĺæŀķ": 3818,
      "ä¸īçĻ¾": 3819,
      "ä¸īåĽĽ": 3820,
      "ç§ĭæ°´": 3821,
      "ç§ĭèģ²": 3822,
      "éĽ¨èģ²": 3823,
      "å¼©": 3824,
      "èºĭ": 3825,
      "è¬Ĺ": 3826,
      "æ´½": 3827,
      "é³¯": 3828,
      "äº¦å·²": 3829,
      "åħ¬é¤ĺ": 3830,
      "æ¥¹": 3831,
      "ä¸ĸæīĢ": 3832,
      "å¯Ĵæļĳ": 3833,
      "çĮ·": 3834,
      "èĤĸ": 3835,
      "æ¯Ģ": 3836,
      "éĹĪ": 3837,
      "åįĹé¢¨": 3838,
      "å®¢ä¾Ĩ": 3839,
      "é£Ľä¾Ĩ": 3840,
      "æľĿéĻ½": 3841,
      "æĵĺ": 3842,
      "åįģåĪĨ": 3843,
      "å¡µä¸ĸ": 3844,
      "æı´": 3845,
      "åŁİä¸Ń": 3846,
      "èĵ´": 3847,
      "æŃ²æŃ²": 3848,
      "ç°Ł": 3849,
      "å¾Įä¾Ĩ": 3850,
      "æ»¿çľ¼": 3851,
      "é¬±": 3852,
      "éĩİèī²": 3853,
      "çķĻå¾Ĺ": 3854,
      "æķħå±±": 3855,
      "æ¹ĸæµ·": 3856,
      "éĮĦ": 3857,
      "è½ħ": 3858,
      "å¿½å¿½": 3859,
      "çĳ¤": 3860,
      "å¤ªèĻĽ": 3861,
      "å²©": 3862,
      "æĦĽåĲŁè©©": 3863,
      "èĴ¼èĭĶ": 3864,
      "ç¶ĵè¡Į": 3865,
      "ç¶ĵç¶¸": 3866,
      "ç¶łéĻ°": 3867,
      "èĳĹæĽ¸": 3868,
      "æĨĤæĤ£": 3869,
      "æĴĲ": 3870,
      "äº¤æĥħ": 3871,
      "èłħ": 3872,
      "éĳĦ": 3873,
      "ä¾Ŀä¾Ŀ": 3874,
      "è«¸äºº": 3875,
      "æ§ĭ": 3876,
      "åł±åľĭ": 3877,
      "ç¾İäºº": 3878,
      "çĩĪçģ«": 3879,
      "çĽĽå¾·": 3880,
      "è¡°ç¿ģ": 3881,
      "è´Ĭ": 3882,
      "æ¤½": 3883,
      "æ¤Ĵ": 3884,
      "ä¸ĥåįģ": 3885,
      "å¬°": 3886,
      "ä¸ĺå£ĳ": 3887,
      "é¡Įè©©": 3888,
      "è¡®è¡®": 3889,
      "æĺ¥ä¾ĨéĿŀæĺ¯": 3890,
      "ä¸īåįģåħŃ": 3891,
      "çĢŁçģĳ": 3892,
      "ç¬ĻæŃĮ": 3893,
      "éĤĩä¾Ĩ": 3894,
      "åĹļåĳ¼": 3895,
      "çİ²çĵı": 3896,
      "æĺ¥ä¾ĨéĿŀæĺ¯æĦĽåĲŁè©©": 3897,
      "ä¸¸": 3898,
      "æĺĩ": 3899,
      "ä¸įåĩº": 3900,
      "ä¸įéĸĭ": 3901,
      "ä¸įè²ł": 3902,
      "å¹ĥ": 3903,
      "çĽĨ": 3904,
      "æĻ¶": 3905,
      "ä¸Ģæĸ¹": 3906,
      "ä¸Ģå¿µ": 3907,
      "ä¸ĢèĪ¬": 3908,
      "å¯ĩ": 3909,
      "æĽ¦": 3910,
      "çĦ¡çĽ¡": 3911,
      "çĦ¡è·¯": 3912,
      "çĦ¡åĽł": 3913,
      "æľīéģº": 3914,
      "èª¨": 3915,
      "èĬ»": 3916,
      "æĿĵ": 3917,
      "ä¾Ĩå¾Ģ": 3918,
      "æĻĤäºĭ": 3919,
      "æĹ¥èĲ½": 3920,
      "èĩªæŃ¤": 3921,
      "ç§«": 3922,
      "ä¸Ńå¿ĥ": 3923,
      "ä¸Ńå¤ľ": 3924,
      "ä¸Ńéĸĵ": 3925,
      "éĽ²éľŀ": 3926,
      "ç¾¶": 3927,
      "éļĭ": 3928,
      "è¨Ĭ": 3929,
      "é£Ī": 3930,
      "æĺ¥èįī": 3931,
      "çŁ¥æĪĳ": 3932,
      "ç¿¦": 3933,
      "èĭĴ": 3934,
      "èĭŀ": 3935,
      "åīµ": 3936,
      "çĽ¸éļ¨": 3937,
      "çĽ¸å°ĭ": 3938,
      "æ°´ä¸Ĭ": 3939,
      "æľĪèī²": 3940,
      "æģ¢": 3941,
      "é»Ľ": 3942,
      "ä¸ĭæľī": 3943,
      "èĢģæ¨¹": 3944,
      "èĢģåĥ§": 3945,
      "é«ĺä¸ĭ": 3946,
      "å¡Ĭ": 3947,
      "ä¸īæĽ´": 3948,
      "æħ³": 3949,
      "çĻ½éĽª": 3950,
      "çĻ½é·º": 3951,
      "èºħ": 3952,
      "èª°äºº": 3953,
      "èª°è¨Ģ": 3954,
      "å¤ļæĥħ": 3955,
      "ç©ºèĩª": 3956,
      "èĳ£": 3957,
      "æĭĸ": 3958,
      "å¯Ĵé£Ł": 3959,
      "å»ĵ": 3960,
      "é¤ī": 3961,
      "çĮľ": 3962,
      "éĨħ": 3963,
      "å¤ľä¾Ĩ": 3964,
      "æ¿«": 3965,
      "åĿ³": 3966,
      "ç¯ĭ": 3967,
      "èı°": 3968,
      "å¹³æĹ¥": 3969,
      "è£Ļ": 3970,
      "æ®Ĩ": 3971,
      "çĩ¦": 3972,
      "éĿŀåĲ¾": 3973,
      "åįĹéĥŃ": 3974,
      "éĸĢä¸ĭ": 3975,
      "å®¢åŃĲ": 3976,
      "çī©å¤ĸ": 3977,
      "éĸĭåı£": 3978,
      "æ£§": 3979,
      "å¹¾çķª": 3980,
      "èįīèįī": 3981,
      "åĲ¾å»¬": 3982,
      "çį¨æľī": 3983,
      "ç·¯": 3984,
      "çı¾": 3985,
      "ç½ķ": 3986,
      "åĮĹå±±": 3987,
      "éº½": 3988,
      "éģĬäºº": 3989,
      "èŁĢ": 3990,
      "èŁĭ": 3991,
      "åıªåľ¨": 3992,
      "çłĶ": 3993,
      "å¶¸": 3994,
      "è¹ī": 3995,
      "è¹Ĭ": 3996,
      "ç®ķ": 3997,
      "ç®Ĺ": 3998,
      "åĪ¥æľī": 3999,
      "æĴŀ": 4000,
      "éĽ¢é¨·": 4001,
      "çĢĿ": 4002,
      "æĹ©æĻļ": 4003,
      "åľĴæ±ł": 4004,
      "æª¢": 4005,
      "å£¯å¿ĥ": 4006,
      "å¹¸æľī": 4007,
      "èŀ¢": 4008,
      "æ·®ä¸Ĭ": 4009,
      "ä»ĸå¹´": 4010,
      "åĻĵ": 4011,
      "æ¤¿": 4012,
      "ç¥ĸå¸«": 4013,
      "éĮ¦ç¹¡": 4014,
      "é£Ħé£Ħ": 4015,
      "åª¿": 4016,
      "éī¢": 4017,
      "æ¬£çĦ¶": 4018,
      "æ¬¡ç¬¬": 4019,
      "æħİåĭ¿": 4020,
      "äºĮä¸īåŃĲ": 4021,
      "å©Ĩå¨ĳ": 4022,
      "ç±ĥè¼¿": 4023,
      "å´İå¶ĩ": 4024,
      "äº¹": 4025,
      "äºĽ": 4026,
      "å¾½": 4027,
      "å®ĥ": 4028,
      "ä¸įèĳĹ": 4029,
      "ä¸įåİŃ": 4030,
      "å°İ": 4031,
      "åľľ": 4032,
      "èĩ§": 4033,
      "èĩŃ": 4034,
      "éĸ±": 4035,
      "ä¸Ģäºº": 4036,
      "ä¸Ģå¾ŀ": 4037,
      "ä¸Ģéº¾": 4038,
      "ä¸Ģæ®µ": 4039,
      "çĦ¡çĪ²": 4040,
      "éĩĿ": 4041,
      "çŁĹ": 4042,
      "è¡¾": 4043,
      "èģ°": 4044,
      "èģĨ": 4045,
      "éĻ·": 4046,
      "å±±ç¿ģ": 4047,
      "çĻĸ": 4048,
      "å¤©å¿ĥ": 4049,
      "å¤©å£¤": 4050,
      "éł½": 4051,
      "ä¾ĨèĢħ": 4052,
      "ä½ķä¼¼": 4053,
      "æĻĤäºº": 4054,
      "æĻĤæľī": 4055,
      "æĻĤä¾Ĩ": 4056,
      "æ±İ": 4057,
      "å¦Ĥæ°´": 4058,
      "èĲ¼": 4059,
      "èĲĥ": 4060,
      "èĩªç¬ĳ": 4061,
      "åĽļ": 4062,
      "ä¸Ńå¤©": 4063,
      "çīĪ": 4064,
      "éĽ²æ·±": 4065,
      "éĽ²å¤ĸ": 4066,
      "ç¾¡": 4067,
      "è©°": 4068,
      "é¦®": 4069,
      "æ³®": 4070,
      "éļĪ": 4071,
      "çĶŁæŃ»": 4072,
      "æŃ¤èªŀ": 4073,
      "ç¥Ĳ": 4074,
      "å¾Ĺä¸Ģ": 4075,
      "æĺ¥æŃ¸": 4076,
      "æĺ¥éĽ¨": 4077,
      "çŁ¥åĲĽ": 4078,
      "çŁ¥å¹¾": 4079,
      "æĪĳè¡Į": 4080,
      "çİķ": 4081,
      "çµ¦": 4082,
      "æ¸ħæ³ī": 4083,
      "å¿ĥäºĭ": 4084,
      "ä¸Ĭæĸ¹": 4085,
      "æ²®": 4086,
      "æ²Ĩ": 4087,
      "åī¡": 4088,
      "çĽ¸å¿ĺ": 4089,
      "åĬ«": 4090,
      "åĬĶ": 4091,
      "æľªåı¯": 4092,
      "æľªæĽ¾": 4093,
      "è¦ĭåĲĽ": 4094,
      "æĺ¯æĻĤ": 4095,
      "é¡°": 4096,
      "èĪĩæĪĳ": 4097,
      "èĢģå¤§": 4098,
      "æĺİåłĤ": 4099,
      "æŃ¸è·¯": 4100,
      "ä¸īå±±": 4101,
      "ä¸īåįģå¹´": 4102,
      "ç§ĭåħī": 4103,
      "èĲ¬å£ĳ": 4104,
      "æļ¢": 4105,
      "æĨ©": 4106,
      "åı¤å¯º": 4107,
      "éĽ¨éľ²": 4108,
      "åħ¶äºº": 4109,
      "åħ¶ä¸Ń": 4110,
      "è¥Ħ": 4111,
      "èºĶ": 4112,
      "çªĪ": 4113,
      "æīĢå¾Ĺ": 4114,
      "èª°éģĵ": 4115,
      "èª°å¾©": 4116,
      "åĢ©": 4117,
      "äº¦çĦ¡": 4118,
      "åħ¬åį¿": 4119,
      "å¤§åľ°": 4120,
      "å»Ľ": 4121,
      "éĨ´": 4122,
      "æ·±å±±": 4123,
      "å¤ľåįĬ": 4124,
      "èĻķå£«": 4125,
      "æ¬²çĽ¡": 4126,
      "æ¯Ĺ": 4127,
      "æµģèĲ½": 4128,
      "çĩİ": 4129,
      "éĿŀäºº": 4130,
      "éĸĢæĪ¶": 4131,
      "æ¹į": 4132,
      "è¾ľ": 4133,
      "èº«å¾Į": 4134,
      "èĮ¸": 4135,
      "åįģèĲ¬": 4136,
      "çĥĺ": 4137,
      "æ£Ĵ": 4138,
      "èĲ½æľĪ": 4139,
      "èĲ½èĲ½": 4140,
      "èŃī": 4141,
      "æ©Ĳ": 4142,
      "æµ·åħ§": 4143,
      "åĺ¶": 4144,
      "åĽĽé¡§": 4145,
      "åĦ²": 4146,
      "åĦŁ": 4147,
      "éĻ°æĻ´": 4148,
      "å°ıéĽ¨": 4149,
      "ç·Ĭ": 4150,
      "ç·ĺ": 4151,
      "å¤¢å¯Ĳ": 4152,
      "ç±©": 4153,
      "éļ¨é¢¨": 4154,
      "ä½¿ä¹ĭ": 4155,
      "æķħåľĭ": 4156,
      "ç½ĩ": 4157,
      "äºĶå¹´": 4158,
      "äºĶæĽ´": 4159,
      "äºĶèī²": 4160,
      "ä¸Ķåĸľ": 4161,
      "åĮĹæľĽ": 4162,
      "é¨ģ": 4163,
      "èĪĪçĽ¡": 4164,
      "çĭĹ": 4165,
      "èŁĨ": 4166,
      "é¶¯": 4167,
      "ç¶ĵå¹´": 4168,
      "æŀĿéłŃ": 4169,
      "ç®´": 4170,
      "æĨĤåľĭ": 4171,
      "çĴ£": 4172,
      "æĻ¯çī©": 4173,
      "æĸ¯æĸĩ": 4174,
      "çĬĸ": 4175,
      "è«¸åħ¬": 4176,
      "åľĸçķ«": 4177,
      "æįī": 4178,
      "åļ¼": 4179,
      "å¯Ĥå¯Ĥ": 4180,
      "éŀħ": 4181,
      "é£²éħĴ": 4182,
      "çīĽç¾Ĭ": 4183,
      "èģĬèĩª": 4184,
      "çŀ°": 4185,
      "æľĢå¥½": 4186,
      "ç©įéĽ¨": 4187,
      "åĶĲèĻŀ": 4188,
      "é´»éµł": 4189,
      "éĩ£éŃļ": 4190,
      "éĬĢæ²³": 4191,
      "æ«ĵ": 4192,
      "è¤Ĳ": 4193,
      "åĶ¯æľī": 4194,
      "è¾Ľèĭ¦": 4195,
      "èĺĨèĬ±": 4196,
      "æľĶé¢¨": 4197,
      "å¦»åŃĲ": 4198,
      "æ¢§æ¡Ĳ": 4199,
      "æ¢¨èĬ±": 4200,
      "çıĬçĳļ": 4201,
      "èŃ¬å¦Ĥ": 4202,
      "èŁĭèŁĢ": 4203,
      "£é«": 4204,
      "¹éĿ": 4205,
      "å¤Ķ": 4206,
      "éĽ©": 4207,
      "åĲ¸": 4208,
      "ä¸įçį¨": 4209,
      "ä¸įè¾Ń": 4210,
      "ä¸įçħ©": 4211,
      "ä¸įåıĹ": 4212,
      "ä¸įåģľ": 4213,
      "ä½ĩ": 4214,
      "ä½ļ": 4215,
      "å±ł": 4216,
      "å°¸": 4217,
      "æĸ¤": 4218,
      "éĸ½": 4219,
      "ä¸Ģæ°£": 4220,
      "ä¸Ģç¯Ģ": 4221,
      "ä¸Ģçķª": 4222,
      "åŃ½": 4223,
      "çĦ¡å¡µ": 4224,
      "çĦ¡åĬĽ": 4225,
      "çĦ¡è¨Ī": 4226,
      "éĩµ": 4227,
      "çĪª": 4228,
      "èĢ¶": 4229,
      "èĢĲ": 4230,
      "çŁĽ": 4231,
      "å±±ä¹ĭ": 4232,
      "æ¸©": 4233,
      "å¤©éģĵ": 4234,
      "æīĺ": 4235,
      "æķ¦": 4236,
      "æķı": 4237,
      "æķŀ": 4238,
      "å¦Ĥè¨±": 4239,
      "åĭĥ": 4240,
      "æĹ¥éķ·": 4241,
      "ä¸Ńåľĭ": 4242,
      "ä¸ŃåºŃ": 4243,
      "ä¸Ńå®µ": 4244,
      "éĽ²è»Ĭ": 4245,
      "éļ¼": 4246,
      "éļĦ": 4247,
      "éļĺ": 4248,
      "è¨Ŀ": 4249,
      "éľ¹éĿ": 4250,
      "æŃ¤çĶŁ": 4251,
      "æŃ¤æ¨Ĥ": 4252,
      "é«»": 4253,
      "é«£é«": 4254,
      "æĺ¥å¯Ĵ": 4255,
      "æĪĳå®¶": 4256,
      "æ¸ħå¤¢": 4257,
      "ä¿¾": 4258,
      "åī¯": 4259,
      "è¿¤": 4260,
      "æ°´éĽ²": 4261,
      "æľªæľī": 4262,
      "æľªçĪ²": 4263,
      "æľªå¾Ĺ": 4264,
      "æĺİæĺİ": 4265,
      "å¡«": 4266,
      "èĲ¬å¹´": 4267,
      "èĲ¬ä¸Ī": 4268,
      "æļĪ": 4269,
      "éķ·å¹´": 4270,
      "éķ·æ²Ļ": 4271,
      "åĮ¹": 4272,
      "åĸŁ": 4273,
      "æĤ½": 4274,
      "åĳµ": 4275,
      "åįĥä¸Ī": 4276,
      "åįĥéĪŀ": 4277,
      "åįĥä»ŀ": 4278,
      "ç¨Ķ": 4279,
      "æīĢå±ħ": 4280,
      "å¤ļæĺ¯": 4281,
      "å¤ļå£«": 4282,
      "è»Į": 4283,
      "åīįäºº": 4284,
      "äº¦éĿŀ": 4285,
      "èĳº": 4286,
      "æĭŃ": 4287,
      "å®¶å±±": 4288,
      "èĤĺ": 4289,
      "çİīå±±": 4290,
      "æ¯İ": 4291,
      "èİĵ": 4292,
      "åĿĬ": 4293,
      "ç¯ģ": 4294,
      "éĿĴåĨ¥": 4295,
      "éĿĴè¡«": 4296,
      "åįĹå·ŀ": 4297,
      "æ¹«": 4298,
      "éĩįéĩį": 4299,
      "æĮĪ": 4300,
      "é£ĽèĬ±": 4301,
      "åģķ": 4302,
      "åģļ": 4303,
      "æĵº": 4304,
      "éĩĳçİī": 4305,
      "åįģè¼ī": 4306,
      "ç¹Ĩ": 4307,
      "å¡µä¸Ń": 4308,
      "å¡µå¯°": 4309,
      "åĪ°èĻķ": 4310,
      "çį¨éĨĴ": 4311,
      "åŁİå¸Ĥ": 4312,
      "åĲŁç¿ģ": 4313,
      "éĻ°éĻ½": 4314,
      "èĭ¥çĪ²": 4315,
      "éŁĭ": 4316,
      "èµ·ä¾Ĩ": 4317,
      "ç·¬": 4318,
      "ç·Ĵ": 4319,
      "æĩīæľī": 4320,
      "æĩīç¬ĳ": 4321,
      "éĽĸçĦ¡": 4322,
      "é¼ĩ": 4323,
      "éĩİèĢģ": 4324,
      "äºĶæ¹ĸ": 4325,
      "çľ¼çľĭ": 4326,
      "åĹĶ": 4327,
      "çµĤéĽ£": 4328,
      "è½Ĥ": 4329,
      "å¿½è¦ĭ": 4330,
      "éĿĪå±±": 4331,
      "æĺĶå¹´": 4332,
      "æ³īçŁ³": 4333,
      "é¶»": 4334,
      "åĶ®": 4335,
      "æºªä¸Ĭ": 4336,
      "æºªæ°´": 4337,
      "æĸ¼æŃ¤": 4338,
      "çĻ»å±±": 4339,
      "å¾ĢéĤĦ": 4340,
      "çĵ£": 4341,
      "è¹Ł": 4342,
      "éĬ³": 4343,
      "éĿ¢çĽ®": 4344,
      "çĽ´éģĵ": 4345,
      "çĽ´éłĪ": 4346,
      "æľĥåĲĪ": 4347,
      "åĽłæĢĿ": 4348,
      "ä½Ĩè¦ĭ": 4349,
      "èĩ¨é¢¨": 4350,
      "çĴĥ": 4351,
      "ä¹ĥæĺ¯": 4352,
      "åħĥæ°£": 4353,
      "åĹŁæĪĳ": 4354,
      "èł¹": 4355,
      "é¡ĺè¨Ģ": 4356,
      "çĤ³": 4357,
      "çĤĻ": 4358,
      "æ¡ĥæºĲ": 4359,
      "çŀ¥": 4360,
      "çĩĪåīį": 4361,
      "èŀŃ": 4362,
      "çĽ¤æ¡ĵ": 4363,
      "ç¸±æ¨ª": 4364,
      "é±ł": 4365,
      "è¾²å®¶": 4366,
      "éĢłçī©": 4367,
      "éĽŀé³´": 4368,
      "æĿĸèĹľ": 4369,
      "åģ¶çĦ¶": 4370,
      "èľĢéģĵ": 4371,
      "éĽ¶èĲ½": 4372,
      "å§ĵåĲį": 4373,
      "èĸ°é¢¨": 4374,
      "çĲħçİķ": 4375,
      "èĤĿèĨ½": 4376,
      "åĴĦåĹŁ": 4377,
      "åĨīåĨī": 4378,
      "åĮĨåĮĨ": 4379,
      "çĶ·åħĴ": 4380,
      "å®¶æľīåľĴæ±ł": 4381,
      "éĸ¶éĹĶ": 4382,
      "éľ¹éĿĤ": 4383,
      "é«£é«´": 4384,
      "ĽçĦ¶": 4385,
      "å¤¸": 4386,
      "ä¸įæŃ¸": 4387,
      "ä¸įåħ¥": 4388,
      "ä¸įçķĻ": 4389,
      "ä¸įæĽ¾": 4390,
      "ä¸įæĸ·": 4391,
      "ä¸įæĹ©": 4392,
      "å¹¢": 4393,
      "æĪ¾": 4394,
      "äººäºº": 4395,
      "äººåľ¨": 4396,
      "äººéĽ£": 4397,
      "äººçļĨ": 4398,
      "éĸ»": 4399,
      "ä¸Ģä¸Ģ": 4400,
      "ä¸Ģæĺ¥": 4401,
      "ä¸Ģä¸ĸ": 4402,
      "ä¸ĢåŃĹ": 4403,
      "ä¸ĢæĽ²": 4404,
      "ä¸Ģæ¯«": 4405,
      "çĶ£": 4406,
      "æĽĨ": 4407,
      "çĦ¡åı¯": 4408,
      "çĦ¡èģ²": 4409,
      "çĦ¡çĶ¨": 4410,
      "èĢĨ": 4411,
      "èĢĺ": 4412,
      "é¢¨çĶŁ": 4413,
      "é¢¨å¡µ": 4414,
      "çŁ©": 4415,
      "è¡į": 4416,
      "åĪ¤": 4417,
      "åĪ·": 4418,
      "è¦¿": 4419,
      "å¦¬": 4420,
      "éĢĹ": 4421,
      "æ¸¥": 4422,
      "å¤©æĪĲ": 4423,
      "å¤©æ©Ł": 4424,
      "å¤©éļĽ": 4425,
      "å¤©å®ĩ": 4426,
      "éł¸": 4427,
      "ä¾ĨæĻĤ": 4428,
      "æĻĤä¿Ĺ": 4429,
      "èĩªæĪĲ": 4430,
      "èĩªå¾ŀ": 4431,
      "çĪ²åŃĲ": 4432,
      "çĪ²æ°ĳ": 4433,
      "æ¨ŀ": 4434,
      "éĽ²å±±": 4435,
      "éĽ²æ°´": 4436,
      "è©Ń": 4437,
      "èĬ±æŀĿ": 4438,
      "æŃ¤åĲĽ": 4439,
      "ç¥ķ": 4440,
      "éĤĥ": 4441,
      "çŁ¥æľī": 4442,
      "çŁ¥å·±": 4443,
      "æĪĳçĪ²": 4444,
      "æĪĳæĺ¯": 4445,
      "ä¼į": 4446,
      "åı¯èĥ½": 4447,
      "çµĦ": 4448,
      "æ¸ħåĲį": 4449,
      "æ¸ħåĲŁ": 4450,
      "ä¿Ł": 4451,
      "æ¬·": 4452,
      "èĭķ": 4453,
      "è¿ħ": 4454,
      "ä¹ĭçĪ²": 4455,
      "æľªè¶³": 4456,
      "è²Ĥ": 4457,
      "è²Ķ": 4458,
      "è²Ŀ": 4459,
      "æģģ": 4460,
      "é¡į": 4461,
      "èĪĩä¸ĸ": 4462,
      "å½¤": 4463,
      "å½Ĭ": 4464,
      "èįĶ": 4465,
      "é«ĺèĩº": 4466,
      "é«ĺç¾©": 4467,
      "ç§ĭç©º": 4468,
      "æħ¢": 4469,
      "æĨ²": 4470,
      "éĽ¨å¾Į": 4471,
      "éĽ¨é¤ĺ": 4472,
      "åħ¶æīĢ": 4473,
      "ä»¥æŃ¤": 4474,
      "æ±Łæµģ": 4475,
      "åįĥå°ĭ": 4476,
      "è¥¦": 4477,
      "ç¨Ł": 4478,
      "ç¨ł": 4479,
      "ç¦Ĭ": 4480,
      "è¬Ļ": 4481,
      "æĶ¸": 4482,
      "æĶĦ": 4483,
      "çªĺ": 4484,
      "èª°æĺ¯": 4485,
      "è»º": 4486,
      "åĢª": 4487,
      "åīįå¹´": 4488,
      "è§¥": 4489,
      "æĽ´å¤ļ": 4490,
      "æĽ´è¦º": 4491,
      "æ¬²çŁ¥": 4492,
      "åķ¾": 4493,
      "åķŀ": 4494,
      "çİīå¥³": 4495,
      "è£´": 4496,
      "æĿ±åĿ¡": 4497,
      "æ¹²": 4498,
      "å®¢å¿ĥ": 4499,
      "å¾©è¦ĭ": 4500,
      "æľĿæļ®": 4501,
      "æľĿå¸Ĥ": 4502,
      "ç²¥": 4503,
      "çĻ¾ä¸Ī": 4504,
      "å®īå±ħ": 4505,
      "ç¹ª": 4506,
      "ç¹½": 4507,
      "å°ĩå¥Īä½ķ": 4508,
      "æ¶¸": 4509,
      "è±ĪæĥŁ": 4510,
      "æµ·æ°´": 4511,
      "åħīè¼Ŀ": 4512,
      "èİ«éģĵ": 4513,
      "æ½¦": 4514,
      "èķĻ": 4515,
      "é»Ħèĳī": 4516,
      "åŁİåįĹ": 4517,
      "çģ§": 4518,
      "æ¨Ĥå£½": 4519,
      "å°ıèĪŁ": 4520,
      "åħ©é¬¢": 4521,
      "æ»¿åľ°": 4522,
      "ä»Ļå®¶": 4523,
      "éĤĦå®¶": 4524,
      "æµ®æ²Ī": 4525,
      "é¼Ī": 4526,
      "æ¹ĸå±±": 4527,
      "éľľéĽª": 4528,
      "åŃ¤å±±": 4529,
      "åŃ¤éĽ²": 4530,
      "åŃ¤åŁİ": 4531,
      "å°ļæľī": 4532,
      "éºĴ": 4533,
      "å´¢": 4534,
      "åĬŁæĪĲ": 4535,
      "é´¦": 4536,
      "æ³¢æµª": 4537,
      "èħ´": 4538,
      "é©ļäºº": 4539,
      "åıªæľī": 4540,
      "è¿ĳæĹ¥": 4541,
      "çł¥": 4542,
      "èĴ¼çĶŁ": 4543,
      "èĴ¼èĮ«": 4544,
      "æľĥç¨½": 4545,
      "èĻĽåĲį": 4546,
      "æĲĶ": 4547,
      "çĴŀ": 4548,
      "ç²¾èªł": 4549,
      "æ±łéĤĬ": 4550,
      "å¿ħæľī": 4551,
      "å®®æ®¿": 4552,
      "æĸ¯è¨Ģ": 4553,
      "éĳ°": 4554,
      "èĽ»": 4555,
      "éĲĻ": 4556,
      "åľĴæŀĹ": 4557,
      "åĭŀçĶŁ": 4558,
      "åħ«ä¹Ŀ": 4559,
      "æ´ŀå¤©": 4560,
      "å·ĸå£ĳ": 4561,
      "çļĩå¤©": 4562,
      "å¹¸çĦ¡": 4563,
      "ç¾½ç¿¼": 4564,
      "çĽĽäºĭ": 4565,
      "åĺīè³ĵ": 4566,
      "ä»ĸäºº": 4567,
      "å¡ŀä¸Ĭ": 4568,
      "çĪ¶åŃĲ": 4569,
      "æ¥ĬèĬ±": 4570,
      "åĻª": 4571,
      "éĪį": 4572,
      "æŃ¦éĻµ": 4573,
      "æŃ¦å¤·": 4574,
      "éįĬ": 4575,
      "èĥ¸èĩĨ": 4576,
      "éĤ£çŁ¥": 4577,
      "æ¹ĺæ°´": 4578,
      "éģĶèĢħ": 4579,
      "åªĴ": 4580,
      "å¯¸å¿ĥ": 4581,
      "èĤħèĤħ": 4582,
      "éī¤": 4583,
      "æ·µæºĲ": 4584,
      "æī¶æ¡ĳ": 4585,
      "éĸīéĹľ": 4586,
      "éį¾çĪ²": 4587,
      "åħ¸åĪĳ": 4588,
      "ç¸½æĺ¯": 4589,
      "èļ¤": 4590,
      "åħĦå¼Ł": 4591,
      "æĤµçĦ¶": 4592,
      "é¢º": 4593,
      "éĻĭå··": 4594,
      "è³ĪçĶŁ": 4595,
      "çªģåħĢ": 4596,
      "èĢ¿èĢ¿": 4597,
      "å»Ĭå»Ł": 4598,
      "æ½ºæ¹²": 4599,
      "èĤĮèĨļ": 4600,
      "ä¿Ľä»°": 4601,
      "æĭĦæĿĸ": 4602,
      "é´Ľé´¦": 4603,
      "å®¶æľīåľĴæ±łæ¨Ĥå£½": 4604,
      "å®¶æľīåľĴæ±łæ¨Ĥå£½åº·": 4605,
      "å¾µ": 4606,
      "åĲ»": 4607,
      "åĲ¼": 4608,
      "æŃ§": 4609,
      "ä¸įæ¬²": 4610,
      "ä¸įæĩī": 4611,
      "ä¸įéĢļ": 4612,
      "ä¸įæķĻ": 4613,
      "ä¸įçľł": 4614,
      "ä¸įæ·º": 4615,
      "ä¸įçķı": 4616,
      "æĸ¥": 4617,
      "æĸ¬": 4618,
      "æĪ®": 4619,
      "èĩ¥": 4620,
      "çĽİ": 4621,
      "çĽŀ": 4622,
      "èĪĦ": 4623,
      "ä¸ĢåįĬ": 4624,
      "æĹŃ": 4625,
      "ä¾Ķ": 4626,
      "æĽĻ": 4627,
      "å·ī": 4628,
      "å·ĺ": 4629,
      "çĦ¡èĪĩ": 4630,
      "çĦ¡éĤĬ": 4631,
      "çĦ¡å®ļ": 4632,
      "æľīèĬ±": 4633,
      "é¢¨çĥŁ": 4634,
      "é¢¨çħĻ": 4635,
      "é¢¨éĽ·": 4636,
      "çŁ§": 4637,
      "è¡Ĵ": 4638,
      "è¡Ļ": 4639,
      "å±±éĻ°": 4640,
      "å±±è°·": 4641,
      "èª£": 4642,
      "æĦĨ": 4643,
      "å¤©ä¹ĭ": 4644,
      "å¤©çĦ¶": 4645,
      "å¤©åı°": 4646,
      "ä¾ĨæŃ¤": 4647,
      "ä½ķå¿ĥ": 4648,
      "å¦Ĥæĺ¥": 4649,
      "å¥¢": 4650,
      "æĹ¥åĩº": 4651,
      "èĩªåı¯": 4652,
      "èĩªçĽ¸": 4653,
      "ä¸Ńäºº": 4654,
      "ä¸Ńå¹´": 4655,
      "æ³Ħ": 4656,
      "èĬ±åīį": 4657,
      "èĬ±é¦Ļ": 4658,
      "åİ¦": 4659,
      "æĺ¥æ°´": 4660,
      "æĪĳä»Ĭ": 4661,
      "æĪĳæĢĿ": 4662,
      "æĢ±": 4663,
      "å¿ĥçĦ¡": 4664,
      "çĽ¸èŃĺ": 4665,
      "è¼Ł": 4666,
      "æľĪä¸Ń": 4667,
      "æľĪæ»¿": 4668,
      "åºĹ": 4669,
      "ç¶ı": 4670,
      "äºĭäºĭ": 4671,
      "æľªæŃ¸": 4672,
      "æľªèĤ¯": 4673,
      "åĲĽè©©": 4674,
      "æģĻ": 4675,
      "å½«": 4676,
      "æŃ¸æŃŁ": 4677,
      "é«ĺåłĤ": 4678,
      "é«ĺè³¢": 4679,
      "èĲ¬æĪ¶": 4680,
      "éĽ¨ä¾Ĩ": 4681,
      "éķ·åĲŁ": 4682,
      "éķ·æĿ¾": 4683,
      "æİ£": 4684,
      "çĻ½éľ²": 4685,
      "çĻ½é³¥": 4686,
      "åįĥç§ĭ": 4687,
      "ç¬ı": 4688,
      "ç¦¿": 4689,
      "èª°å°ĩ": 4690,
      "èª°èŃĺ": 4691,
      "é³¶": 4692,
      "åĩºå±±": 4693,
      "åĩºåħ¥": 4694,
      "éģĵæĹģ": 4695,
      "åīįå±±": 4696,
      "äº¦éĽ£": 4697,
      "åħ¬ä¹ĭ": 4698,
      "èĳ¬": 4699,
      "èĳ±": 4700,
      "å¤§éģĵ": 4701,
      "å¤§æĬµ": 4702,
      "æĭĬ": 4703,
      "å¯Ĵèī²": 4704,
      "å¤ľéķ·": 4705,
      "çħĸ": 4706,
      "çİīæ¨¹": 4707,
      "èİİ": 4708,
      "ç¯Ħ": 4709,
      "è£ķ": 4710,
      "åħ¥å±±": 4711,
      "çĽ¡æĺ¯": 4712,
      "å®¢æĦģ": 4713,
      "å§ļ": 4714,
      "æľĿä¾Ĩ": 4715,
      "æľĿå¤ķ": 4716,
      "èĮ¨": 4717,
      "éĽ£ä»¥": 4718,
      "èĲ½èĳī": 4719,
      "çŁ³ä¸Ĭ": 4720,
      "åĴİ": 4721,
      "è±Īèĥ½": 4722,
      "è±Īå¾©": 4723,
      "è±Īçį¨": 4724,
      "èķī": 4725,
      "çģ¼": 4726,
      "å¾Įäºº": 4727,
      "èµ·äºĪ": 4728,
      "è¡£è£³": 4729,
      "é¬Ł": 4730,
      "é¦¬è¹Ħ": 4731,
      "èĢĮä»Ĭ": 4732,
      "èĢĮåĨµ": 4733,
      "è®İ": 4734,
      "è®Ĵ": 4735,
      "éĩİèįī": 4736,
      "çķĻéĢ£": 4737,
      "ç½²": 4738,
      "äºĶæľĪ": 4739,
      "äºĶåįĥ": 4740,
      "åŃ¤èĪŁ": 4741,
      "å°ļé¤ĺ": 4742,
      "è¼ķéĽ²": 4743,
      "éºĭ": 4744,
      "åį´ç¬ĳ": 4745,
      "é¨ĸ": 4746,
      "ä¹ĿæĹ¥": 4747,
      "åłĤåīį": 4748,
      "åĬŁæ¥Ń": 4749,
      "æ³īèģ²": 4750,
      "å¤ªè¡Į": 4751,
      "åħ±åĲĽ": 4752,
      "çĭİ": 4753,
      "éŃļé¾į": 4754,
      "å°įæŃ¤": 4755,
      "æĸ¼ä»Ĭ": 4756,
      "å¶®": 4757,
      "è¹Ļ": 4758,
      "ç¶ĵçĩŁ": 4759,
      "çĶ°éĩİ": 4760,
      "éĬĸ": 4761,
      "ç®±": 4762,
      "çĽ´ä¸ĭ": 4763,
      "çĽ´æ¬²": 4764,
      "åºŃåīį": 4765,
      "å¨Ń": 4766,
      "æĴĵ": 4767,
      "äº¤éģĬ": 4768,
      "éĳł": 4769,
      "çĤ¬": 4770,
      "åľĸæĽ¸": 4771,
      "çĸĳæĺ¯": 4772,
      "æ´ŀéĸĢ": 4773,
      "è¸µ": 4774,
      "èĪīä¸ĸ": 4775,
      "æ§©": 4776,
      "æ§ĥ": 4777,
      "æĮģæŃ¤": 4778,
      "æ²Ļé·Ĺ": 4779,
      "èģĬä»¥": 4780,
      "åĨ°éľľ": 4781,
      "çĶĺæ£ł": 4782,
      "è³¦è©©": 4783,
      "çµĲäº¤": 4784,
      "çŁŃéķ·": 4785,
      "èĿ¦": 4786,
      "åµ¯": 4787,
      "èĵ¬èĴ¿": 4788,
      "éĽ·éľĨ": 4789,
      "åĻ´": 4790,
      "æ¼«æ¼«": 4791,
      "èĮħç°·": 4792,
      "ä½Ľæ³ķ": 4793,
      "è³ĵå®¢": 4794,
      "æ·ºæ·±": 4795,
      "æıļéĽĦ": 4796,
      "æľ±é¡Ķ": 4797,
      "åŁĥå¡µ": 4798,
      "æŃ·æŃ·": 4799,
      "èĻŁä»¤": 4800,
      "åª¼": 4801,
      "åĨįæĭľ": 4802,
      "èįĨå·ŀ": 4803,
      "é·Ĺé·º": 4804,
      "é¨·äºº": 4805,
      "æ«»": 4806,
      "æ®ºæ°£": 4807,
      "æ£®æ£®": 4808,
      "æĹĮæĹĹ": 4809,
      "çĨĻçĨĻ": 4810,
      "æĤµæľĽ": 4811,
      "ç¦¾é»į": 4812,
      "åµĲåħī": 4813,
      "åĸ¬æľ¨": 4814,
      "çŃĭåĬĽ": 4815,
      "éºĴéºŁ": 4816,
      "å´¢å¶¸": 4817,
      "¢ç¹Ĩ": 4818,
      "´èĿ¶": 4819,
      "äº®": 4820,
      "åħģ": 4821,
      "éĽĭ": 4822,
      "å¾¼": 4823,
      "æĺĨ": 4824,
      "æĺĬ": 4825,
      "ä¸įçĶŁ": 4826,
      "ä¸įéģł": 4827,
      "ä¸įè¨Ģ": 4828,
      "ä¸įæľĥ": 4829,
      "ä¸įåĭĿ": 4830,
      "ä¸įè§£": 4831,
      "ä¸įæĥľ": 4832,
      "éģµ": 4833,
      "æĪ¢": 4834,
      "çĽ¥": 4835,
      "çĽĤ": 4836,
      "äººä¾Ĩ": 4837,
      "äººä¹ĭ": 4838,
      "èĪ«": 4839,
      "ä¸ĢæľĽ": 4840,
      "ä¸ĢäºĮ": 4841,
      "ä¸Ģèĳī": 4842,
      "ä¸Ģæ¦»": 4843,
      "ä¸Ģæ´¾": 4844,
      "æĹĴ": 4845,
      "å¯¤": 4846,
      "å¯©": 4847,
      "åŃļ": 4848,
      "æĽĿ": 4849,
      "å·ĩ": 4850,
      "æľīå¹´": 4851,
      "æľīåĲį": 4852,
      "é¢¨é¨·": 4853,
      "çŁ®": 4854,
      "éĢ®": 4855,
      "å±±éĿĪ": 4856,
      "æµ£": 4857,
      "æ¸¤": 4858,
      "èĬ·": 4859,
      "èĬ¹": 4860,
      "æĿ²": 4861,
      "çķİ": 4862,
      "çķľ": 4863,
      "ç´±": 4864,
      "æī¼": 4865,
      "æ±¾": 4866,
      "å¥¸": 4867,
      "æĹ¥æļĸ": 4868,
      "å¸ĸ": 4869,
      "å¸Ļ": 4870,
      "ä¸Ńéģĵ": 4871,
      "ä¸Ńå·ŀ": 4872,
      "ç«º": 4873,
      "ç«Ħ": 4874,
      "çīĺ": 4875,
      "éĽ²çĶŁ": 4876,
      "éĽ²éĸĢ": 4877,
      "éĽ²å½±": 4878,
      "éļ£": 4879,
      "éļ»": 4880,
      "èĬ±é£Ľ": 4881,
      "çĶŁå¹³": 4882,
      "æŃ¤æĹ¥": 4883,
      "æŃ¤ä¸Ń": 4884,
      "æŃ¤æĺ¯": 4885,
      "æŃ¤è©©": 4886,
      "ç¥Ľ": 4887,
      "å£®": 4888,
      "æĺ¥æĦģ": 4889,
      "çŁ¥éĿŀ": 4890,
      "è³ģ": 4891,
      "æ¸ħåħī": 4892,
      "å¹´è±Ĳ": 4893,
      "æ¬Ĵ": 4894,
      "ä¸ĬæĽ¸": 4895,
      "åīİ": 4896,
      "è±ļ": 4897,
      "åºĸ": 4898,
      "ç¶¢ç¹Ĩ": 4899,
      "æľªéĸĭ": 4900,
      "æľªèŃĺ": 4901,
      "æľªåħ¨": 4902,
      "æľªå¤®": 4903,
      "æ¼¬": 4904,
      "èĪĩäºº": 4905,
      "èĪĩèª°": 4906,
      "èĢģçŁ£": 4907,
      "æĺİæĻĤ": 4908,
      "æŃ¸æĻĤ": 4909,
      "æŃ¸èĪŁ": 4910,
      "é«ĺæŃĮ": 4911,
      "ä»Ĭä¾Ĩ": 4912,
      "æ»ĵ": 4913,
      "ç§ĭæľĪ": 4914,
      "ç§ĭéĽ¨": 4915,
      "ç§ĭæ·±": 4916,
      "èĲ¬äºº": 4917,
      "åİ»åľĭ": 4918,
      "éķ·çĶŁ": 4919,
      "éķ·æĺ¯": 4920,
      "éķ·æ±Ł": 4921,
      "éķ·èĢħ": 4922,
      "å¼ģ": 4923,
      "åĮ¿": 4924,
      "æİª": 4925,
      "æİĸ": 4926,
      "å·²éģİ": 4927,
      "å·²ä¹ħ": 4928,
      "çĻ½æĻĿ": 4929,
      "åħ¶æĻĤ": 4930,
      "åħ¶å¦Ĥ": 4931,
      "åħ¶ä¸ĭ": 4932,
      "åĸĻ": 4933,
      "åĸĿ": 4934,
      "ä»¥ç¾©": 4935,
      "æ±ŁéĤĬ": 4936,
      "æ±Łæ·®": 4937,
      "è©©ç¿ģ": 4938,
      "åįĥå°º": 4939,
      "æīĢèĩ³": 4940,
      "èª°åı¯": 4941,
      "éģĵå¾·": 4942,
      "æ¥¸": 4943,
      "ç©ºè°·": 4944,
      "å¯Ĵå±±": 4945,
      "å¯Ĵåħī": 4946,
      "é¤ł": 4947,
      "éħĴéħ£": 4948,
      "åĲįåŃĹ": 4949,
      "åĲįåĪ©": 4950,
      "çħī": 4951,
      "æ¯ħ": 4952,
      "æĽ¸ä¾Ĩ": 4953,
      "éłŃçĻ½": 4954,
      "éĥ¤": 4955,
      "çĩĥ": 4956,
      "éĿŀçĦ¡": 4957,
      "å¾ŀæ¸ł": 4958,
      "éĿĴæĿ¾": 4959,
      "éĿĴçĩĪ": 4960,
      "æĸ°å¹´": 4961,
      "æĸ°æĻ´": 4962,
      "è¾¯": 4963,
      "è¥¿ä¾Ĩ": 4964,
      "è¥¿éĥĬ": 4965,
      "èº«ä¸Ĭ": 4966,
      "ç¥ŀçī©": 4967,
      "éĸĭéĸĢ": 4968,
      "æľĿæĹ¥": 4969,
      "éĩĳåŁİ": 4970,
      "çĻ¾å·Ŀ": 4971,
      "èŃļ": 4972,
      "èŃľ": 4973,
      "å¡µå¤ĸ": 4974,
      "é¦Ļé¢¨": 4975,
      "çŁ³çĶ°": 4976,
      "åĴ¬": 4977,
      "çĮ¶è¨ĺ": 4978,
      "æ¡´": 4979,
      "èįīæ¨¹": 4980,
      "èİ«æķĻ": 4981,
      "åĲ¾å®¶": 4982,
      "åĲ¾æ°ĳ": 4983,
      "æŃ£èī²": 4984,
      "éĩĮéĸŃ": 4985,
      "åĽĽæľĪ": 4986,
      "çľŁæ¨Ĥ": 4987,
      "æŀĹæ³ī": 4988,
      "ç°§": 4989,
      "å¾ĮçĶŁ": 4990,
      "ç¸¹": 4991,
      "èĭ¥è«ĸ": 4992,
      "å°ıåħĴ": 4993,
      "éŁľ": 4994,
      "åħ©çľ¼": 4995,
      "éĦĴ": 4996,
      "å¤¢æĸ·": 4997,
      "é¤ĺäºĭ": 4998,
      "å±ħå£«": 4999,
      "éĨīç¿ģ": 5000,
      "éĨīéĦī": 5001,
      "å¹½èĪĪ": 5002,
      "åķıæ´¥": 5003,
      "æķħèĢģ": 5004,
      "äºĮæ¯Ľ": 5005,
      "éľľé¢¨": 5006,
      "éľľéľ²": 5007,
      "åŃ¤å¿ł": 5008,
      "åį´æĨ¶": 5009,
      "èªŀè¨Ģ": 5010,
      "å¿½å¦Ĥ": 5011,
      "åįĬç©º": 5012,
      "æīĭä¸Ń": 5013,
      "çĳ°": 5014,
      "é§¸": 5015,
      "æ¦Ĥ": 5016,
      "æĺĶæĹ¥": 5017,
      "èĪĪä¾Ĩ": 5018,
      "æĥŁæģĲ": 5019,
      "èħ¦": 5020,
      "è¢´": 5021,
      "æ¨ĵä¸Ĭ": 5022,
      "åŀ¢": 5023,
      "åŀł": 5024,
      "çł§": 5025,
      "çłĤ": 5026,
      "æľ¨èĲ½": 5027,
      "å¶ł": 5028,
      "ç¶łæ¥Ĭ": 5029,
      "éģºæģ¨": 5030,
      "èĭ¦è¾Ľ": 5031,
      "å®ļçŁ¥": 5032,
      "ä½Ĩå¾Ĺ": 5033,
      "æ²³æ°´": 5034,
      "åħŃåĲĪ": 5035,
      "éĽ¢éĽ¢": 5036,
      "çĢ°": 5037,
      "æĺŁè¾°": 5038,
      "éĢ£æĹ¥": 5039,
      "ç´«åºľ": 5040,
      "ç´«å®¸": 5041,
      "éĳ¾": 5042,
      "ä¹ĺé¢¨": 5043,
      "æŃ»çĶŁ": 5044,
      "ç¾£å±±": 5045,
      "çªĹæĪ¶": 5046,
      "èľ¿": 5047,
      "èľľ": 5048,
      "çĿĽ": 5049,
      "åĩīé¢¨": 5050,
      "éĻµè°·": 5051,
      "å¿Ĺå£«": 5052,
      "çŀ¬": 5053,
      "çŀİ": 5054,
      "ç¾½ç¿°": 5055,
      "æ·®åįĹ": 5056,
      "åĤ·å¿ĥ": 5057,
      "åį·èĪĴ": 5058,
      "çµĲèĮħ": 5059,
      "ç¦®ç¾©": 5060,
      "æľĢæĺ¯": 5061,
      "èĿ¸": 5062,
      "èĿ´èĿ¶": 5063,
      "æºĲæµģ": 5064,
      "èĺŃäºŃ": 5065,
      "æĢ§åĳ½": 5066,
      "éĻ¶ä»¤": 5067,
      "éĻ¶æ½ľ": 5068,
      "äºĨçĦ¡": 5069,
      "å©ī": 5070,
      "ç«ŁæĹ¥": 5071,
      "é£ĦéĽ¶": 5072,
      "èĮħèĮ¨": 5073,
      "å¬¾": 5074,
      "å¶ºéłŃ": 5075,
      "æľ±éĸĢ": 5076,
      "éĥĬåİŁ": 5077,
      "åĢŁåķı": 5078,
      "æµ©æµ©": 5079,
      "è¥Łæĩ·": 5080,
      "éīħ": 5081,
      "é¸ŀé³³": 5082,
      "è¡¡éĻ½": 5083,
      "çŃīéĸĳ": 5084,
      "ç¿°æŀĹ": 5085,
      "ç¼¾": 5086,
      "æĿ³åĨ¥": 5087,
      "æ±²æ±²": 5088,
      "æŃ³æľĪ": 5089,
      "ä¸ģå¯§": 5090,
      "ç¨»ç²±": 5091,
      "éº»å§ĳ": 5092,
      "ä½ķçĪ²èĢħ": 5093,
      "ä»²å°¼": 5094,
      "çĭ¼èĹī": 5095,
      "éľıéľı": 5096,
      "éľĸéĽ¨": 5097,
      "é°²": 5098,
      "ç¨ļåŃĲ": 5099,
      "çħĮçħĮ": 5100,
      "èĽ¾çľī": 5101,
      "èı°èĴ²": 5102,
      "¾ç¶": 5103,
      "å¾ĩ": 5104,
      "æŃĲ": 5105,
      "åı¨": 5106,
      "ä¸įèµ·": 5107,
      "ä¸įåķı": 5108,
      "ä¸įå°ĳ": 5109,
      "ä¸įåŃ¸": 5110,
      "ä¸įè¨±": 5111,
      "ä¸įç§»": 5112,
      "ä¸įä½ı": 5113,
      "ä¸įæĶ¹": 5114,
      "ä¸įæ¸Ľ": 5115,
      "ä¸įæĨļ": 5116,
      "éģ¯": 5117,
      "ä½µ": 5118,
      "ä»ĩ": 5119,
      "äººåİ»": 5120,
      "äººèİ«": 5121,
      "æĻ¤": 5122,
      "ä¸ĢéĽ¨": 5123,
      "ä¸Ģæ¨¹": 5124,
      "ä¸Ģå¤ķ": 5125,
      "ä¸Ģå¾ĳ": 5126,
      "ä¸Ģæ´Ĺ": 5127,
      "æĽ¿": 5128,
      "çĦ¡éĽĻ": 5129,
      "çĦ¡æ¥µ": 5130,
      "çĦ¡éļĽ": 5131,
      "çĦ¡éĤª": 5132,
      "çĦ¡æģĻ": 5133,
      "éĩĤ": 5134,
      "æľīä¸Ģ": 5135,
      "æľīåŃĲ": 5136,
      "æľīæĥħ": 5137,
      "é¢¨é«ĺ": 5138,
      "é¢¨èģ²": 5139,
      "é¢¨åĭķ": 5140,
      "é¢¨å®ļ": 5141,
      "åĪª": 5142,
      "å±±è·¯": 5143,
      "å±±æ³ī": 5144,
      "èª¥": 5145,
      "èĬ°": 5146,
      "æĿª": 5147,
      "æĿ¼": 5148,
      "å¤©èĪĩ": 5149,
      "ä½ķä¹ĭ": 5150,
      "ä½ķåľ¨": 5151,
      "ä½ķèĥ½": 5152,
      "æĻĤå¾©": 5153,
      "æ·ħ": 5154,
      "æ·ĳ": 5155,
      "å¦ĤèĪĬ": 5156,
      "èĩªéģ©": 5157,
      "èĩªè¬Ĥ": 5158,
      "çĪ²äºº": 5159,
      "ä¸Ńå¤®": 5160,
      "éĽ²ä¸Ń": 5161,
      "éĽ²æ¼¢": 5162,
      "æ³Ŀ": 5163,
      "æĥ°": 5164,
      "éļķ": 5165,
      "èĬ±ä¸ĭ": 5166,
      "è¨Ľ": 5167,
      "éľĪ": 5168,
      "æŃ¤ä½ķ": 5169,
      "é«ĳ": 5170,
      "é«Ļ": 5171,
      "ç©½": 5172,
      "ç©Ĺ": 5173,
      "å¾Ĺä¼¼": 5174,
      "æĪĳæĩ·": 5175,
      "ç¿«": 5176,
      "æĢ³": 5177,
      "æ¸ħå¤ľ": 5178,
      "æ¸ħçµķ": 5179,
      "å¹´èı¯": 5180,
      "å¹´å°ĳ": 5181,
      "ä¸Ĭäºº": 5182,
      "æŀ°": 5183,
      "åīĹ": 5184,
      "è¿¦": 5185,
      "ä¹ĭåīĩ": 5186,
      "æľĪèı¯": 5187,
      "åĨĴ": 5188,
      "åĬĥ": 5189,
      "æľªåĪ°": 5190,
      "åĲĽå¿ĥ": 5191,
      "åĲĽæģ©": 5192,
      "è²ħ": 5193,
      "é¡¥": 5194,
      "èĪĩåŃĲ": 5195,
      "å½Ŀ": 5196,
      "ä¸ĭé¦¬": 5197,
      "èĢģæĿ¾": 5198,
      "èĢģå¤«": 5199,
      "èĢģæ·ļ": 5200,
      "è¡ĮåĪ°": 5201,
      "å¡ļ": 5202,
      "ä¸īæĺ¥": 5203,
      "ä¸īç§ĭ": 5204,
      "ä»Ĭå¤ķ": 5205,
      "ç§ĭèįī": 5206,
      "æĨ¾": 5207,
      "éĽ¨ä¸Ń": 5208,
      "éĽ¨éĽª": 5209,
      "åİ»ä¸į": 5210,
      "åİ»ä¾Ĩ": 5211,
      "åİ»åİ»": 5212,
      "åĮı": 5213,
      "æİĺ": 5214,
      "ç¬ĭ": 5215,
      "æ´Ļ": 5216,
      "èª°æķ¢": 5217,
      "æĬĢ": 5218,
      "å¤ļçĹħ": 5219,
      "æĦıèĩª": 5220,
      "æĦıåľ¨": 5221,
      "çįħ": 5222,
      "ä¸ĸè·¯": 5223,
      "æĭļ": 5224,
      "å¯Ĵæ³ī": 5225,
      "éħĴæĿ¯": 5226,
      "æ¢Ń": 5227,
      "æĽ´æ¬²": 5228,
      "èĤĵ": 5229,
      "åĲįå±±": 5230,
      "æ¬²åİ»": 5231,
      "çİīåłĤ": 5232,
      "åĿ°": 5233,
      "åĿĳ": 5234,
      "éĹĩ": 5235,
      "è£¨": 5236,
      "è£Ķ": 5237,
      "æ°£æ¸ħ": 5238,
      "æĿ±åĲĽ": 5239,
      "æĿ±èĩ¯": 5240,
      "æµģä¿Ĺ": 5241,
      "çŃ¯": 5242,
      "åħ¥å¤¢": 5243,
      "éĿŀä¸Ģ": 5244,
      "åįĹåŁİ": 5245,
      "èº«åľ¨": 5246,
      "çķ¶ä¸ĸ": 5247,
      "çī©èī²": 5248,
      "é£Ľåİ»": 5249,
      "é£Ľé´»": 5250,
      "æĸ¹å¤ĸ": 5251,
      "éĽ£çĽ¡": 5252,
      "å®īèĥ½": 5253,
      "ç¹¾ç¶": 5254,
      "æ©Ī": 5255,
      "åĴ¿": 5256,
      "è±Īæĺ¯": 5257,
      "è±Īä½Ĩ": 5258,
      "çĮ¶èĩª": 5259,
      "èįīèī²": 5260,
      "éĽªéľľ": 5261,
      "èİ«çĽ¸": 5262,
      "èİ«å°ĩ": 5263,
      "é»Ħæ²³": 5264,
      "åĺĪ": 5265,
      "èģŀèªª": 5266,
      "åĽĽåľį": 5267,
      "åŁİä¸ĭ": 5268,
      "èĵĦ": 5269,
      "æŃ²æļ®": 5270,
      "æŀĹéĸĵ": 5271,
      "ç°ŀ": 5272,
      "ç¬ĳè«ĩ": 5273,
      "åĲŁéŃĤ": 5274,
      "æĥħæĩ·": 5275,
      "åħĪè¦º": 5276,
      "æ»¿å±±": 5277,
      "å¤¢åĽŀ": 5278,
      "å¤¢è¦º": 5279,
      "éĨīçľł": 5280,
      "åĲĳéģĵ": 5281,
      "åĽŀçĴ°": 5282,
      "éĩİæ°´": 5283,
      "æĻļä¾Ĩ": 5284,
      "æķħäºĭ": 5285,
      "æķ¸æĹ¥": 5286,
      "ç½¹": 5287,
      "æ¹ĸåħī": 5288,
      "æ¹ĸéĤĬ": 5289,
      "èĩ³æĸ¼": 5290,
      "èĩ³èªł": 5291,
      "ä¹ħå·²": 5292,
      "åį´æĺ¯": 5293,
      "ä¹Ŀå·ŀ": 5294,
      "ä¹ĿéľĦ": 5295,
      "å¾·ä¹ĭ": 5296,
      "åĪĿå¿ĥ": 5297,
      "æ¦¼": 5298,
      "åĸľè¦ĭ": 5299,
      "å¤ªçĻ½": 5300,
      "å¤ªèı¯": 5301,
      "çª®éĤĬ": 5302,
      "çİĭåŃ«": 5303,
      "å¿ĺæ©Ł": 5304,
      "éľ²èı¯": 5305,
      "é¶ļ": 5306,
      "çµķéłĤ": 5307,
      "åħĴæĽ¹": 5308,
      "éŃļé³¥": 5309,
      "å°įéħĴ": 5310,
      "ä¿Ĺäºº": 5311,
      "èĴ¼ç¿ł": 5312,
      "çĶ°å®¶": 5313,
      "çĽ´ä¸Ĭ": 5314,
      "éģºéŁ³": 5315,
      "åºŃæ¨¹": 5316,
      "éĹľæĥħ": 5317,
      "åĭĿéģĬ": 5318,
      "ç¢§çİī": 5319,
      "ä½Ĩè¦º": 5320,
      "èĩ¨æµģ": 5321,
      "èķŃçĳŁ": 5322,
      "ä¾¿è¦º": 5323,
      "è§ĢèĢħ": 5324,
      "é³¥èģ²": 5325,
      "ä¸¹å¿ĥ": 5326,
      "æĴĴ": 5327,
      "ç£µ": 5328,
      "å®®ä¸Ń": 5329,
      "çĢ£": 5330,
      "å¥ĩåĵī": 5331,
      "åŀĤåŀĤ": 5332,
      "åŀĤæ¥Ĭ": 5333,
      "çķ°éĦī": 5334,
      "ä¹ĺæĻĤ": 5335,
      "æļ®éĽ²": 5336,
      "è«¸çĶŁ": 5337,
      "çĿ¢": 5338,
      "çĩķåŃĲ": 5339,
      "çĩķéĽĢ": 5340,
      "åĳ¼ç«¥": 5341,
      "æ¥ļäºº": 5342,
      "åĽºä¸į": 5343,
      "å¾Ĵèĩª": 5344,
      "ä½³äºº": 5345,
      "å½¢åĭ¢": 5346,
      "è»ĴæĺĤ": 5347,
      "æĤłçĦ¶": 5348,
      "æŃ¡èģ²": 5349,
      "åĢļæ¬Ħ": 5350,
      "æĥľåĵī": 5351,
      "çĪŃä¼¼": 5352,
      "å¸¦éĽ¨": 5353,
      "æ®ĺéĽª": 5354,
      "æĺıæĺı": 5355,
      "ç§»æĻĤ": 5356,
      "çµ²ç«¹": 5357,
      "åĨłèĵĭ": 5358,
      "å£ģéĸĵ": 5359,
      "åİŁéĩİ": 5360,
      "è¡Ĩäºº": 5361,
      "çĺł": 5362,
      "ç©įéĽª": 5363,
      "åį³æĺ¯": 5364,
      "èµ¤å¿ĥ": 5365,
      "èµ¤æĿ¾": 5366,
      "æ²Īæ²Ī": 5367,
      "åĻ«": 5368,
      "ç§Ģèī²": 5369,
      "çīĩæĻĤ": 5370,
      "çīĩçīĩ": 5371,
      "æ¤İ": 5372,
      "å½¼æŃ¤": 5373,
      "æ¼ģçĪ¶": 5374,
      "å¤©åľ°éĸĵ": 5375,
      "çį»éħ¬": 5376,
      "éĽŀçĬ¬": 5377,
      "åķ¼é³¥": 5378,
      "æ¡ĳéº»": 5379,
      "æıļåŃĲ": 5380,
      "æ»Ħæ´²": 5381,
      "çĳ¶èĩº": 5382,
      "çĳ¶æ±ł": 5383,
      "æĿĸå±¨": 5384,
      "ç³Ł": 5385,
      "åĲĦæľī": 5386,
      "æļĩæĹ¥": 5387,
      "ç¨įç¨į": 5388,
      "éĤ¦äºº": 5389,
      "æħĪæ¯į": 5390,
      "éļİåīį": 5391,
      "æľĭåıĭ": 5392,
      "æĿ³æĿ³": 5393,
      "æ¸ºæ¸º": 5394,
      "çĸĩæĺĶ": 5395,
      "è¹¤è·¡": 5396,
      "åĭ³æ¥Ń": 5397,
      "çĦ¡ä¸Ģäºĭ": 5398,
      "å¼ŁåħĦ": 5399,
      "åł¯èĪľ": 5400,
      "ç¨½é¦ĸ": 5401,
      "æģ°å¦Ĥ": 5402,
      "èĦ©ç«¹": 5403,
      "æĲĸèĲ½": 5404,
      "å¤ĻæĺĶ": 5405,
      "å¾ĻåĢļ": 5406,
      "æ´ĭæ´ĭ": 5407,
      "çºįçºį": 5408,
      "ç¢Įç¢Į": 5409,
      "æ²ĨçĢ£": 5410,
      "èİĵèĭĶ": 5411,
      "çĵ£é¦Ļ": 5412,
      "è²Ķè²ħ": 5413,
      "ç¹½ç´Ľ": 5414,
      "åµ¯å³¨": 5415,
      "ç¹¾ç¶£": 5416,
      "¡å·¡": 5417,
      "¹èĳŃ": 5418,
      "Ĩå³": 5419,
      "ĭå¨Ł": 5420,
      "æľĹ": 5421,
      "äºī": 5422,
      "å®ı": 5423,
      "ä¸įä¸ĭ": 5424,
      "ä¸įåĽł": 5425,
      "ä¸įä¿¡": 5426,
      "ä¸įè®Ĭ": 5427,
      "ä¸įæĶ¶": 5428,
      "éģĴ": 5429,
      "ä½¯": 5430,
      "ä½ŀ": 5431,
      "æĸ²": 5432,
      "æĸĿ": 5433,
      "äººæľī": 5434,
      "æĻ»": 5435,
      "éĸ«": 5436,
      "éĸĶ": 5437,
      "å¿¿": 5438,
      "ä¸Ģå®¶": 5439,
      "ä¸ĢéĽĻ": 5440,
      "ä¸Ģåį·": 5441,
      "æ°ĵ": 5442,
      "çĦ¡ä¸į": 5443,
      "çĦ¡çī©": 5444,
      "çĦ¡åħī": 5445,
      "çĦ¡é¤ĺ": 5446,
      "çĦ¡æ¶¯": 5447,
      "çĪ¨": 5448,
      "æľīä»¥": 5449,
      "æľīå¹¾": 5450,
      "æľīå¦ĤæŃ¤": 5451,
      "é¢¨éª¨": 5452,
      "éĢ¡å·¡": 5453,
      "å±±å®¶": 5454,
      "å±±æ·±": 5455,
      "èªķ": 5456,
      "èĬĭ": 5457,
      "æĿī": 5458,
      "å¤©ä¸Ģ": 5459,
      "ä¾ĨéĤĦ": 5460,
      "ä½ķå¾ŀ": 5461,
      "ä½ķçķ°": 5462,
      "ä½ķåĨµ": 5463,
      "å¦Ĥçİī": 5464,
      "èĲ¸": 5465,
      "åĭµ": 5466,
      "æĹ¥æĸľ": 5467,
      "èĩªè¦º": 5468,
      "çĪ²åķı": 5469,
      "åĽĢ": 5470,
      "éĽ²é£Ľ": 5471,
      "éĽ²æł¹": 5472,
      "è©Ĳ": 5473,
      "æ³³": 5474,
      "çĶŁä¾Ĩ": 5475,
      "è¨´": 5476,
      "æŃ¤é¢¨": 5477,
      "æŃ¤éģĵ": 5478,
      "æŃ¤èĻķ": 5479,
      "æŃ¤çī©": 5480,
      "é«¦": 5481,
      "é«ı": 5482,
      "ç©¡": 5483,
      "ç©«": 5484,
      "å¾Ĺåħ¶": 5485,
      "å¾ĹæīĢ": 5486,
      "æĺ¥æĹ¥": 5487,
      "æĺ¥éĽ²": 5488,
      "æĪĳçĦ¡": 5489,
      "æĪĳçį¨": 5490,
      "ç¿İ": 5491,
      "ä¼İ": 5492,
      "åı¯äºº": 5493,
      "åı¯çĪ²": 5494,
      "åı¯èĪĩ": 5495,
      "å¿ĥå·²": 5496,
      "ä¸Ĭé¦¬": 5497,
      "ä¸Ĭåľĭ": 5498,
      "æ²«": 5499,
      "æ²ĵ": 5500,
      "è¿Ń": 5501,
      "çĽ¸å¾Ĺ": 5502,
      "çĽ¸çľĭ": 5503,
      "çĽ¸çħ§": 5504,
      "ä¹ĭæ°´": 5505,
      "æľĪçħ§": 5506,
      "åºł": 5507,
      "ç¶»": 5508,
      "æľªæĪĲ": 5509,
      "æľªè¨±": 5510,
      "æ¼ī": 5511,
      "æĺ¯çĪ²": 5512,
      "åľ¨æīĢ": 5513,
      "è¡ĮçĽ¡": 5514,
      "è¡Įå½¹": 5515,
      "æĺİåħ¬": 5516,
      "é«ĺéĸ£": 5517,
      "å¡ĭ": 5518,
      "ä¸īåįĥéĩĮ": 5519,
      "ä¸īå¯¸": 5520,
      "ä»ĬçĪ²": 5521,
      "ä»Ĭå¤ľ": 5522,
      "æ»ķ": 5523,
      "ç§ĭéľľ": 5524,
      "åİ»çŁ£": 5525,
      "éķ·ç©º": 5526,
      "æİĩ": 5527,
      "å·²æĺ¯": 5528,
      "å·²åħĪ": 5529,
      "çĻ½çĴ§": 5530,
      "åħ¶å¯¦": 5531,
      "åĸĺ": 5532,
      "ä»¥ä¾Ĩ": 5533,
      "æ±Łå¤©": 5534,
      "æ±Łè¥¿": 5535,
      "è©©å®¶": 5536,
      "è©©æĥħ": 5537,
      "æĤĦ": 5538,
      "ç¬Ī": 5539,
      "è¥ª": 5540,
      "èº¡": 5541,
      "ç¨ħ": 5542,
      "è«³": 5543,
      "æĶĻ": 5544,
      "çªł": 5545,
      "æīĢéģ©": 5546,
      "è»»": 5547,
      "åĢĺ": 5548,
      "åħ¬äºĭ": 5549,
      "åħ¬æŃ¸": 5550,
      "ç©ºä¸Ń": 5551,
      "èĳµ": 5552,
      "å¤§éĽħ": 5553,
      "å®¶èģ²": 5554,
      "å®¶å®¶": 5555,
      "å»©": 5556,
      "æ·±èĹı": 5557,
      "æĽ´æ·±": 5558,
      "æĽ´éłĪ": 5559,
      "æĽ´åĲĳ": 5560,
      "èĤ±": 5561,
      "èĤ´": 5562,
      "æ¿º": 5563,
      "æ¿ł": 5564,
      "æ¬²é£Ľ": 5565,
      "çħ¥": 5566,
      "çİīçŃį": 5567,
      "ç¯ĺ": 5568,
      "èı±": 5569,
      "è£¡": 5570,
      "æĿ±æµģ": 5571,
      "æĿ±æµ·": 5572,
      "æµģå¹´": 5573,
      "èĥ½å¹¾ä½ķ": 5574,
      "èĹķ": 5575,
      "å¾ŀèĮ²": 5576,
      "éģłå±±": 5577,
      "åįĹæĸ¹": 5578,
      "çĽ¡åĬĽ": 5579,
      "é©Ħ": 5580,
      "è¥¿å¤©": 5581,
      "è¥¿æĿ±": 5582,
      "éĩįè¼ķ": 5583,
      "çķ¶èĩª": 5584,
      "æĮ«": 5585,
      "çī©æĥħ": 5586,
      "çī©èı¯": 5587,
      "é£Ľæ³ī": 5588,
      "ç¥ŀåħ¶": 5589,
      "éĸĭæĻĤ": 5590,
      "éĸĭèĬ±": 5591,
      "å¾©ä½ķ": 5592,
      "åģĪ": 5593,
      "æĸ¹å¯¸": 5594,
      "ç²ĺ": 5595,
      "å®īçĶ¨": 5596,
      "å®īåį±": 5597,
      "åĪ°åºķ": 5598,
      "èĴ¹èĳŃ": 5599,
      "çĮ¶èĥ½": 5600,
      "æµ·å±±": 5601,
      "å¥½éŁ³": 5602,
      "åĵº": 5603,
      "æıĢ": 5604,
      "èİ«èĥ½": 5605,
      "æ½¢": 5606,
      "æ½¸": 5607,
      "é¾Ķ": 5608,
      "é¾ķ": 5609,
      "åĲ¾å¿ĥ": 5610,
      "èķ¨": 5611,
      "é»ĦèıĬ": 5612,
      "æŃ£çķ¶": 5613,
      "éĻ½åĴĮ": 5614,
      "çį¨ç«ĭ": 5615,
      "åĥµ": 5616,
      "åĺ²": 5617,
      "åĽĽåºı": 5618,
      "åŁİéłŃ": 5619,
      "æŃ²èı¯": 5620,
      "æ¨Ĥäºĭ": 5621,
      "ç¬ĳæĮĩ": 5622,
      "ç¸«": 5623,
      "ç¸¾": 5624,
      "èĭ¥çĦ¡": 5625,
      "æ¾Ģ": 5626,
      "æĸĩéĩĩ": 5627,
      "å¢ħ": 5628,
      "å°ıè©¦": 5629,
      "ç¢©": 5630,
      "éŁµ": 5631,
      "æ»¿å¤©": 5632,
      "é¦¬ä¸Ĭ": 5633,
      "å±ħäºº": 5634,
      "æĿ¾ä¸ĭ": 5635,
      "æĿ¾æ±Ł": 5636,
      "æĿ¾èģ²": 5637,
      "å¹½çį¨": 5638,
      "å¹½æĩ·": 5639,
      "å¹½å¯Ĥ": 5640,
      "ç±ľ": 5641,
      "æĩ·åı¤": 5642,
      "æķħåľĴ": 5643,
      "åĤ³å®¶": 5644,
      "äºĮåŃĲ": 5645,
      "æķ¸å³°": 5646,
      "åŃ¤èĬ³": 5647,
      "è¼ķèĪŁ": 5648,
      "éº¤": 5649,
      "èĦĨ": 5650,
      "éĸĴæļĩ": 5651,
      "å´Ĩå³": 5652,
      "ä¹Ŀå¹´": 5653,
      "ä¹Ŀç§ĭ": 5654,
      "å¾·å±±": 5655,
      "ç´ħç´«": 5656,
      "éģĬåŃĲ": 5657,
      "æĽ¾åĲĳ": 5658,
      "æĺĶè³¢": 5659,
      "å¤ªåı²": 5660,
      "é´¨": 5661,
      "çĥŁæ³¢": 5662,
      "çĭ¸": 5663,
      "èħ®": 5664,
      "é¶©": 5665,
      "åĶ¾": 5666,
      "é³´çĲ´": 5667,
      "æ¨ĵåīį": 5668,
      "éŃļé¼Ī": 5669,
      "æ¼¢å®¶": 5670,
      "æ¼¢å®®": 5671,
      "èĴ¼å´ĸ": 5672,
      "èĳĹéŀŃ": 5673,
      "é·²": 5674,
      "æľ¬æĺ¯": 5675,
      "éģºæĪĳ": 5676,
      "æľĥå¾Ĺ": 5677,
      "æĨĤæ°ĳ": 5678,
      "æŁ³çµ®": 5679,
      "èķŃé¨·": 5680,
      "æ¸¸åŃĲ": 5681,
      "éĸĳèº«": 5682,
      "éĸĳæĥħ": 5683,
      "åĹŁäºĪ": 5684,
      "æĽīé¢¨": 5685,
      "å¤ķçħ§": 5686,
      "å¯Ħèªŀ": 5687,
      "éĢ£éĽ²": 5688,
      "ç´«ç¿ł": 5689,
      "ç¾£åħĴ": 5690,
      "é¡ĺåħ¬": 5691,
      "åıĸæ¬¡": 5692,
      "éĲ¸": 5693,
      "éĢģå®¢": 5694,
      "è«¸åŃĲ": 5695,
      "è«¸åĲĽ": 5696,
      "è«¸æĸ¹": 5697,
      "çĿ¥": 5698,
      "éĿľä¸Ń": 5699,
      "æ¥µçĽ®": 5700,
      "æªĲ": 5701,
      "èĪīéłŃ": 5702,
      "ä½³ç¯Ģ": 5703,
      "ä½³åı¥": 5704,
      "å½¢å®¹": 5705,
      "è»ĴçªĹ": 5706,
      "æ®Ĭä¸į": 5707,
      "æł¹æľ¬": 5708,
      "æĢ¥éĽ¨": 5709,
      "å£¯æ°£": 5710,
      "èģĬå¾©": 5711,
      "çĶĺæ³ī": 5712,
      "åĤ¾åŁİ": 5713,
      "åĳ¨æĹĭ": 5714,
      "çĪ¶åħĦ": 5715,
      "èµ¤æĹ¥": 5716,
      "èµ¤åŃĲ": 5717,
      "éĭı": 5718,
      "åĦĴçĶŁ": 5719,
      "éŃĤå¤¢": 5720,
      "æļĳæ°£": 5721,
      "å¬ĭå¨Ł": 5722,
      "åŃ°çĪ²": 5723,
      "æıļå·ŀ": 5724,
      "æ¹ĺæ±Ł": 5725,
      "æĨĳèª°": 5726,
      "å»ŁåłĤ": 5727,
      "æ¡ĤåŃĲ": 5728,
      "æ¡ĤæŀĿ": 5729,
      "é¹µ": 5730,
      "çĽĪå°º": 5731,
      "ç³ŀ": 5732,
      "ç¤¾ç¨·": 5733,
      "æī¿æĺİ": 5734,
      "è¦ıæ¨¡": 5735,
      "å¹²æĪĪ": 5736,
      "éĻįç¦ı": 5737,
      "æĥłæĪĳ": 5738,
      "çĸĬçĸĬ": 5739,
      "åľĺåľĺ": 5740,
      "ç¾Ĭèħ¸": 5741,
      "çĿ¡èµ·": 5742,
      "çĪĽæ¼«": 5743,
      "æ¸¡æ±Ł": 5744,
      "å¹ķåºľ": 5745,
      "æ£łéĻ°": 5746,
      "èī±éĽ£": 5747,
      "éĸŃéĩĮ": 5748,
      "ç°«é¼ĵ": 5749,
      "âĸ¡âĸ¡âĸ¡âĸ¡": 5750,
      "çī¢èĲ½": 5751,
      "ä¿İè±Ĩ": 5752,
      "æĿıèĬ±": 5753,
      "æ½ºæ½º": 5754,
      "é±¸éŃļ": 5755,
      "è¶Ļå·ŀ": 5756,
      "é§Łé¦¬": 5757,
      "æ»Ĥæ²": 5758,
      "éºĭé¹¿": 5759,
      "é«ĳé«ı": 5760,
      "å´Ĩå³Ĵ": 5761,
      "¡èĲ": 5762,
      "©éħ": 5763,
      "µçĲ": 5764,
      "īçĴĥ": 5765,
      "ï¼ļ": 5766,
      "æľµ": 5767,
      "æľŃ": 5768,
      "éĽĮ": 5769,
      "åĲŃ": 5770,
      "æŃĶ": 5771,
      "ä¸įåİ»": 5772,
      "ä¸įå·²": 5773,
      "ä¸įåĪĨ": 5774,
      "ä¸įéĨī": 5775,
      "ä¸įä½¿": 5776,
      "ä¸įé©ļ": 5777,
      "ä¸įéĹľ": 5778,
      "ä¸įè«ĸ": 5779,
      "ä¸įå»¢": 5780,
      "ä¸įåħį": 5781,
      "ä¸įæĢķ": 5782,
      "ä»Ĩ": 5783,
      "å¹¡": 5784,
      "èĩī": 5785,
      "äººè¡Į": 5786,
      "äººæľĽ": 5787,
      "ä¹Ļ": 5788,
      "ä¸Ģçī©": 5789,
      "ä¸Ģèī²": 5790,
      "ä¸ĢæŃ²": 5791,
      "ä¸Ģå¤¢": 5792,
      "ä¸Ģå®¤": 5793,
      "æĹ»": 5794,
      "åŃº": 5795,
      "æĽ©": 5796,
      "æĽľ": 5797,
      "çĦ¡ä»¥": 5798,
      "çĦ¡ä¿Ĺ": 5799,
      "çĦ¡ä»ĸ": 5800,
      "çĦ¡å¥Īä½ķ": 5801,
      "æľīä½ķ": 5802,
      "æľīèģ²": 5803,
      "æľīåĳ½": 5804,
      "é¢¨èĳī": 5805,
      "åĪĬ": 5806,
      "å¦¥": 5807,
      "èģĴ": 5808,
      "éĻĢ": 5809,
      "å±±é«ĺ": 5810,
      "çĻ¯": 5811,
      "æ¸¯": 5812,
      "èĬ¥": 5813,
      "æĿµ": 5814,
      "å¤©éĸĢ": 5815,
      "å¤©é¦Ļ": 5816,
      "å¤©æ²³": 5817,
      "éł°": 5818,
      "ä¾Ĩåİ»": 5819,
      "ä¾Ĩå¾ŀ": 5820,
      "ç´Ī": 5821,
      "ç´ļ": 5822,
      "æīĨ": 5823,
      "å¦Ĥåı¯": 5824,
      "å¦Ĥåľ¨": 5825,
      "èĲĭ": 5826,
      "åĭº": 5827,
      "åĭ¾": 5828,
      "å¥§": 5829,
      "å¥©": 5830,
      "æĹ¥ä»¥": 5831,
      "æĹ¥éĤĬ": 5832,
      "çĪ²çĪ¾": 5833,
      "å¸¯": 5834,
      "æ¨¸": 5835,
      "ä¸Ńå®¢": 5836,
      "ä¸ŃèĪĪ": 5837,
      "ç«¦": 5838,
      "éĽ²æ°£": 5839,
      "éĽ²éľĦ": 5840,
      "æĥ¹": 5841,
      "éļ³": 5842,
      "èĬ±æ»¿": 5843,
      "èĬ±å½±": 5844,
      "çĶŁè¨Ī": 5845,
      "éľĢ": 5846,
      "éľħ": 5847,
      "æŃ¤å±±": 5848,
      "é«Ń": 5849,
      "éĤĲ": 5850,
      "é££": 5851,
      "é£Ĩ": 5852,
      "ç©ł": 5853,
      "å¾Ĺäºº": 5854,
      "å¾Ĺå¤©": 5855,
      "å¾Ĺèĩª": 5856,
      "å¾ĹæŃ¤": 5857,
      "æĺ¥éĻ½": 5858,
      "çŁ¥ä½ķ": 5859,
      "çŁ¥æĺ¯": 5860,
      "ç¿ĽçĦ¶": 5861,
      "åı¯ä½¿": 5862,
      "æ¸ħæ³¢": 5863,
      "æ¸ħåĩī": 5864,
      "å¿ĥèĩª": 5865,
      "ä¸Ĭå®¢": 5866,
      "æ²´": 5867,
      "çĽ¸å¦Ĥ": 5868,
      "çĽ¸åİ»": 5869,
      "çĽ¸éģİ": 5870,
      "ä¹ĭéģĵ": 5871,
      "æľĪåĩº": 5872,
      "åº«": 5873,
      "åºĩ": 5874,
      "åºļ": 5875,
      "æľªèĢģ": 5876,
      "æľªçĽ¡": 5877,
      "æľªå®¹": 5878,
      "æľªä¼ĳ": 5879,
      "æľªè¦º": 5880,
      "åŃĲä¾Ĩ": 5881,
      "éħ¹": 5882,
      "éħ©éħ": 5883,
      "åĲĽä¾Ĩ": 5884,
      "åĲĽèĩ£": 5885,
      "è²¨": 5886,
      "è²¶": 5887,
      "è²¸": 5888,
      "æĺ¯èª°": 5889,
      "æĩ½": 5890,
      "é¡ĵ": 5891,
      "é»¼": 5892,
      "èįĢ": 5893,
      "æĺİå¾·": 5894,
      "æĺİéı¡": 5895,
      "é«ĺåĲŁ": 5896,
      "é«ĺæ¨¹": 5897,
      "ä¸īå¾©": 5898,
      "ä¸īåĪĨ": 5899,
      "ä¸īäºĶ": 5900,
      "ä¸īæŃİ": 5901,
      "ä»ĬæŃ²": 5902,
      "ä»Ĭå®µ": 5903,
      "ç§ĭå®¹": 5904,
      "ç§ĭæ¯«": 5905,
      "èĲ¬å±±": 5906,
      "æļĺ": 5907,
      "æħĩ": 5908,
      "æĨ§": 5909,
      "éķ·å¤ľ": 5910,
      "å¼ĺ": 5911,
      "å¼Ń": 5912,
      "åħ¶å¿ĥ": 5913,
      "åħ¶èº«": 5914,
      "åħ¶é¤ĺ": 5915,
      "åĸ«": 5916,
      "æ±ŁåŁİ": 5917,
      "è©©æĺ¯": 5918,
      "è©©çŃĴ": 5919,
      "åįĥå±±": 5920,
      "è«·": 5921,
      "æĪĲè¡Į": 5922,
      "æĪĲæķĹ": 5923,
      "æĶĺ": 5924,
      "æīĢè¦ĭ": 5925,
      "èª°ä½ķ": 5926,
      "èª°åħ¶": 5927,
      "èª°äºĳ": 5928,
      "åĩºæ²Ĵ": 5929,
      "æĬī": 5930,
      "äº¦æĺ¯": 5931,
      "äº¦äºĳ": 5932,
      "å¤§ç¬ĳ": 5933,
      "å¤§æ²³": 5934,
      "ä¸ĸç¶²": 5935,
      "çĮĹ": 5936,
      "æ·±æ·±": 5937,
      "æ·±æ·º": 5938,
      "éħĴçĨŁ": 5939,
      "æĽ´å¥½": 5940,
      "èĤ¸": 5941,
      "æ¿¬": 5942,
      "æ¿Ĩ": 5943,
      "åĲįåľĴ": 5944,
      "æ¬²èŃĺ": 5945,
      "è·İ": 5946,
      "è·Ŀ": 5947,
      "çİīé¾į": 5948,
      "ç¯ł": 5949,
      "æŁĺ": 5950,
      "æŁļ": 5951,
      "éĹ¥": 5952,
      "å¹³æĻĤ": 5953,
      "å¹³åĪĨ": 5954,
      "æ°£è²Į": 5955,
      "æĿ±åİ»": 5956,
      "æĿ±å®¶": 5957,
      "æµģæ³ī": 5958,
      "èĥ½çĦ¡": 5959,
      "çĩ¥": 5960,
      "çĩĦ": 5961,
      "å¾ŀä½ķ": 5962,
      "éģłæ°´": 5963,
      "æĸ°ä¾Ĩ": 5964,
      "æ¹Ħ": 5965,
      "è¥¿åŃĲ": 5966,
      "çī©çĶŁ": 5967,
      "é£ĽéĽ¨": 5968,
      "é£ĽéĽª": 5969,
      "æĸ¹çĪ²": 5970,
      "æĵ¢": 5971,
      "æĵĴ": 5972,
      "éĽ£èĩª": 5973,
      "çļº": 5974,
      "çļĭ": 5975,
      "ç²µ": 5976,
      "åįģæľĪ": 5977,
      "åįģæķ¸": 5978,
      "åįģäºĶ": 5979,
      "çľĭéĽ²": 5980,
      "èĲ½çŃĨ": 5981,
      "èŃģ": 5982,
      "æ¶Į": 5983,
      "è±ĪçĪ²": 5984,
      "åĲĮå¿ĥ": 5985,
      "å¹¾å¤ļ": 5986,
      "çĮ¶å¦Ĥ": 5987,
      "çĮ¶åŃĺ": 5988,
      "åĵ¡": 5989,
      "éĽªèĬ±": 5990,
      "æ½°": 5991,
      "æ½Ħ": 5992,
      "åĲ¾åŃĲ": 5993,
      "åĲ¾çļĩ": 5994,
      "æĢĿåĲĽ": 5995,
      "é»Ħæ³ī": 5996,
      "é»Ħéµł": 5997,
      "åĥ®": 5998,
      "èģŀåĲĽ": 5999,
      "åĽĽæľĽ": 6000,
      "æŀĹå£ĳ": 6001,
      "èĭ¥æŃ¤": 6002,
      "çĲµçĲ": 6003,
      "çĲīçĴĥ": 6004,
      "å¢Ĭ": 6005,
      "å°ıèīĩ": 6006,
      "åĪĨå¤ĸ": 6007,
      "éĦ´": 6008,
      "èĪĬæĽ¸": 6009,
      "ç·²": 6010,
      "ç·Ĳ": 6011,
      "æ»¿åŁİ": 6012,
      "é¬£": 6013,
      "èĢĮä¸į": 6014,
      "éĨīä¸Ń": 6015,
      "éĨīçľ¼": 6016,
      "éĨīåĢĴ": 6017,
      "æĿ¾éĸĵ": 6018,
      "éĽĸäºĳ": 6019,
      "åĲĳäºº": 6020,
      "éļ¨æĻĤ": 6021,
      "éĩİèĬ±": 6022,
      "æĻļæŃ²": 6023,
      "æĻļç¯Ģ": 6024,
      "åĿĲä¸Ń": 6025,
      "æķ¸é»ŀ": 6026,
      "ç½°": 6027,
      "äºĶçĻ¾": 6028,
      "çľ¼ä¸Ń": 6029,
      "çľ¼çĿĽ": 6030,
      "éľľéľ°": 6031,
      "åŃ¤å¸Ĩ": 6032,
      "åĮĹæµ·": 6033,
      "èĩ³å°Ĭ": 6034,
      "èĦĬ": 6035,
      "é¨®": 6036,
      "é¨¶": 6037,
      "åįĬçĶŁ": 6038,
      "ç´ħéĽ²": 6039,
      "å¸¸å¹´": 6040,
      "å¸¸åľ¨": 6041,
      "é§ĳ": 6042,
      "å¾®èĮ«": 6043,
      "æĺĶäºº": 6044,
      "æĺĶæĻĤ": 6045,
      "èĪĪå»¢": 6046,
      "çĥŁçģ«": 6047,
      "åĴĮé¢¨": 6048,
      "çĨ³": 6049,
      "åıªçŁ¥": 6050,
      "åıªæĺ¯": 6051,
      "æ¨ĵé«ĺ": 6052,
      "å²±": 6053,
      "è»Ĭé¨İ": 6054,
      "æºªæ©ĭ": 6055,
      "å°ĭèĬ³": 6056,
      "çĵ´": 6057,
      "è¹ĭ": 6058,
      "è¹ķ": 6059,
      "èĪŁäºº": 6060,
      "ç¶łæ°´": 6061,
      "æľ¬ä¾Ĩ": 6062,
      "æľ¬æľĿ": 6063,
      "æľŁåĲĽ": 6064,
      "èĭ¦åĲŁ": 6065,
      "èĻĽåłĤ": 6066,
      "ç¢§éĽ²": 6067,
      "èĩ¨æ°´": 6068,
      "èĩ¨æ¿Ł": 6069,
      "èķŃç´¢": 6070,
      "ä¾¿åı¯": 6071,
      "æĤ²é³´": 6072,
      "åħŃæľĿ": 6073,
      "æ±łå¡ĺ": 6074,
      "ä¸¹çłĤ": 6075,
      "çĢ¨": 6076,
      "äº¤æ¸¸": 6077,
      "éĽĻçľ¸": 6078,
      "æĹ©çŁ¥": 6079,
      "çļĨæľī": 6080,
      "çķ°æĻĤ": 6081,
      "éĳª": 6082,
      "çĹħéª¨": 6083,
      "ç¾£çĶŁ": 6084,
      "é¡ĺåĲĽ": 6085,
      "èľĴ": 6086,
      "èī¯åı¯": 6087,
      "çŃĨç«¯": 6088,
      "é¥ķ": 6089,
      "çĤ·": 6090,
      "éĥ½åŁİ": 6091,
      "å¯§çŁ¥": 6092,
      "å¿µæĪĳ": 6093,
      "èįĴèįī": 6094,
      "æĨ¶æĺ¨": 6095,
      "åħ«å¹´": 6096,
      "åĭ¢åĪ©": 6097,
      "æ§³": 6098,
      "å¾Ĵåĭŀ": 6099,
      "ä½³èĻķ": 6100,
      "åĨ·æ·¡": 6101,
      "åĲ³ä¸Ń": 6102,
      "èģĸæľĿ": 6103,
      "çļĩçļĩ": 6104,
      "å«µ": 6105,
      "æĮĩæı®": 6106,
      "çŀŀ": 6107,
      "éı¤": 6108,
      "åĨ°çİī": 6109,
      "å¹³çĶŁæĩ·": 6110,
      "ç¦®æ¨Ĥ": 6111,
      "åĵĢåĵī": 6112,
      "çĲ´çĳŁ": 6113,
      "éģ²çķĻ": 6114,
      "çĺµ": 6115,
      "çıłçĴ£": 6116,
      "å¦ĻèĻķ": 6117,
      "ç±¬èĲ½": 6118,
      "ç±¬éĤĬ": 6119,
      "éģĤä»¤": 6120,
      "æŃ¸ä¾Ĩå¥½": 6121,
      "å¸ĤæľĿ": 6122,
      "æĿİçĻ½": 6123,
      "é£ĦçĦ¶": 6124,
      "èĥ¸æ¬¡": 6125,
      "æ¼ģç¿ģ": 6126,
      "ä»ģç¾©": 6127,
      "ä½Ľç¥ĸ": 6128,
      "åŃ°è¬Ĥ": 6129,
      "èĮ«çĦ¶": 6130,
      "æĻĿéĮ¦": 6131,
      "äººéĸĵä¸ĸ": 6132,
      "é¬¢å·²": 6133,
      "é¬¢æ¯Ľ": 6134,
      "é¥ĳå¯Ĵ": 6135,
      "éĩ£ç«¿": 6136,
      "æ£ĦæįĲ": 6137,
      "èį·èĬ±": 6138,
      "æ¿ĢæĺĤ": 6139,
      "é®ĳ": 6140,
      "éīĽ": 6141,
      "é©ħé¦³": 6142,
      "æĳĩèĲ½": 6143,
      "å¾ģéŀį": 6144,
      "éĢĢä¹ĭ": 6145,
      "æ¬£æ¬£": 6146,
      "å±ĪæĮĩ": 6147,
      "ç³ł": 6148,
      "éĸīæĪ¶": 6149,
      "ç£¨ç¤": 6150,
      "åĲĦèĩª": 6151,
      "æĭĽéļ±": 6152,
      "èĦ«èº«": 6153,
      "æ³ģå¾©": 6154,
      "ä¼ĬæĺĶ": 6155,
      "éħĮéħĴ": 6156,
      "åĸļèµ·": 6157,
      "æ«Ĥ": 6158,
      "è¤°": 6159,
      "åĪ«éĽ¢": 6160,
      "çĪĽçĨ³": 6161,
      "ç¹¡è¡£": 6162,
      "èŀįèŀį": 6163,
      "èĨıèĤĵ": 6164,
      "æİ¡èĹ¥": 6165,
      "è¾Ľåĭ¤": 6166,
      "è¶ħçĦ¶": 6167,
      "ç¨½åı¤": 6168,
      "å®ĭçİī": 6169,
      "ç¡¬": 6170,
      "èµ«èµ«": 6171,
      "èĹ©ç±¬": 6172,
      "è¿ĤéĹĬ": 6173,
      "éł¼æľī": 6174,
      "éľĵè£³": 6175,
      "é°¥": 6176,
      "é©ķéĻ½": 6177,
      "åĦ»ä¾Ĩ": 6178,
      "å¤¾éģĵ": 6179,
      "ç¬³é¼ĵ": 6180,
      "ç¾²çļĩ": 6181,
      "åĩŃæ¬Ħ": 6182,
      "å½Ńæ¾¤": 6183,
      "æħŁåĵŃ": 6184,
      "è¹īè·İ": 6185,
      "æģģéº½": 6186,
      "çįħåŃĲ": 6187,
      "çĿ¥çĿ¨": 6188,
      "éħ©éħĬ": 6189,
      "çĲµçĲ¶": 6190,
      "Ĭèº": 6191,
      "äºŀ": 6192,
      "å¾¨": 6193,
      "å¾ī": 6194,
      "æŃĬ": 6195,
      "åı±": 6196,
      "ä¸įéģİ": 6197,
      "ä¸įçª®": 6198,
      "ä¸įæĥŁ": 6199,
      "ä¸įå®ļ": 6200,
      "ä¸įæĨĤ": 6201,
      "ä¸įé¡§": 6202,
      "ä¸įé£Ł": 6203,
      "ä¸įæļ«": 6204,
      "éģ¡": 6205,
      "æĸ«": 6206,
      "æĪĽ": 6207,
      "èĩŀ": 6208,
      "äººè¿¹": 6209,
      "æĻŀ": 6210,
      "ä¸Ģå¤©": 6211,
      "ä¸Ģèĩª": 6212,
      "ä¸Ģåİ»": 6213,
      "ä¸Ģéģĵ": 6214,
      "ä¸ĢéĸĢ": 6215,
      "ä¸Ģèªŀ": 6216,
      "ä¸Ģæºª": 6217,
      "ä¸Ģå°º": 6218,
      "ä¸Ģä»»": 6219,
      "ä¸Ģæŀķ": 6220,
      "ä¸Ģä¸ĺ": 6221,
      "ä¸ĢçķĿ": 6222,
      "ä¸Ģæłª": 6223,
      "åŃľ": 6224,
      "çĦ¡èĥ½": 6225,
      "çĦ¡å¥½": 6226,
      "çĦ¡ä¹ĥ": 6227,
      "çĦ¡çºĸ": 6228,
      "éĩľ": 6229,
      "æľīä¾Ĩ": 6230,
      "æľīè·¯": 6231,
      "æľīèĭ¥": 6232,
      "æľīå¸¸": 6233,
      "æľīå¥ĩ": 6234,
      "é¢¨æ¸ħ": 6235,
      "é¢¨éĽª": 6236,
      "é¢¨ä¿Ĺ": 6237,
      "é¢¨åľŁ": 6238,
      "é¢¨åĳ³": 6239,
      "è¡¿": 6240,
      "éĿ¦": 6241,
      "éĢŀ": 6242,
      "å±±éĩİ": 6243,
      "æµ¹": 6244,
      "æĿŀ": 6245,
      "å¤©çĶŁ": 6246,
      "å¤©æĺİ": 6247,
      "å¤©æ¬²": 6248,
      "å¤©æŁ±": 6249,
      "å¤©ç±Ł": 6250,
      "ä¾ĨçĽ¸": 6251,
      "ç´ľ": 6252,
      "ä½ķæļĩ": 6253,
      "æķķ": 6254,
      "æĻĤå¹³": 6255,
      "æĻĤæĥħ": 6256,
      "æ·ĭ": 6257,
      "å¦ĤéĽ¨": 6258,
      "å¦ĤæĦı": 6259,
      "å¦Ĥé£Ľ": 6260,
      "èĲ±": 6261,
      "åĭĺ": 6262,
      "æĹ¥åħī": 6263,
      "èĩªæ¨Ĥ": 6264,
      "èĩªåĹŁ": 6265,
      "èĩªæģ¨": 6266,
      "åĩ±": 6267,
      "çĪ²åħ¬": 6268,
      "çĪ²å¤§": 6269,
      "éĽ²èĩª": 6270,
      "éĽ²çĥŁ": 6271,
      "éĽ²ç«¯": 6272,
      "éĽ²éľĵ": 6273,
      "æ³¬": 6274,
      "æ³ļ": 6275,
      "èĬ±ä¸Ń": 6276,
      "èĬ±éĸĵ": 6277,
      "æŃ¤èģ²": 6278,
      "æŃ¤ç¿ģ": 6279,
      "éĤ¸": 6280,
      "é£«": 6281,
      "å£ł": 6282,
      "æĺ¥å±±": 6283,
      "æĺ¥èĬ±": 6284,
      "çŁ¥æŃ¤": 6285,
      "çŁ¥æīĢ": 6286,
      "çŁ¥èĢħ": 6287,
      "æĪĳå·²": 6288,
      "æĪĳèģŀ": 6289,
      "æĪĳæĦĽ": 6290,
      "åı¯æĦĽ": 6291,
      "åı¯æĶĢ": 6292,
      "çµº": 6293,
      "æ¸ħå¯Ĵ": 6294,
      "æ¸ħæµģ": 6295,
      "å¿ĥå¦Ĥ": 6296,
      "ä¿¸": 6297,
      "ä¸ĬçĦ¡": 6298,
      "ä¸Ĭå±¤": 6299,
      "æ²Ľ": 6300,
      "çĽ¸å®ľ": 6301,
      "æ°´æĹ±": 6302,
      "ä¹ĭéĸĵ": 6303,
      "æľĪèĲ½": 6304,
      "æľĪåĪĿ": 6305,
      "è±º": 6306,
      "ç¶½": 6307,
      "åŃĲçľŁ": 6308,
      "è¦ĭäºº": 6309,
      "åĤµ": 6310,
      "æ¼ĵ": 6311,
      "åľ¨å®¶": 6312,
      "æĩ¿": 6313,
      "æĩĥ": 6314,
      "é¡Ĵ": 6315,
      "å½°": 6316,
      "é»Ķ": 6317,
      "èį»": 6318,
      "èĢģæĩ·": 6319,
      "èĢģçĹħ": 6320,
      "è¡Įæĺ¥": 6321,
      "è¡Įå®¢": 6322,
      "è¡ĮèĢħ": 6323,
      "è¡ĮèĹı": 6324,
      "é«ĺç¯Ģ": 6325,
      "é«ĺå³°": 6326,
      "å¡į": 6327,
      "ä¸īçĶŁ": 6328,
      "ä¸īéĸĵ": 6329,
      "ä¸īè¼ī": 6330,
      "ä¸īå³°": 6331,
      "ä»ĬçĦ¡": 6332,
      "ä»Ĭå·²": 6333,
      "ç§ĭæĦı": 6334,
      "ç§ĭæ°£": 6335,
      "ç§ĭé¦Ļ": 6336,
      "ç§ĭæĻļ": 6337,
      "èĲ¬å®¶": 6338,
      "èĲ¬æŃ²": 6339,
      "èĲ¬ä¹ĺ": 6340,
      "æħĬ": 6341,
      "åı¤æĦı": 6342,
      "éķ·åľ¨": 6343,
      "éķ·åŁİ": 6344,
      "å¼ĭ": 6345,
      "è¶¾": 6346,
      "åĮ¡": 6347,
      "åĮķ": 6348,
      "æİł": 6349,
      "å·²æľī": 6350,
      "å·²æĪĲ": 6351,
      "å·²éĿŀ": 6352,
      "ä»¥å¾·": 6353,
      "è©©èĪĪ": 6354,
      "è©©çŃĨ": 6355,
      "è©©ç¯ĩ": 6356,
      "åįĥå·ĸ": 6357,
      "èºĬèº": 6358,
      "è«±": 6359,
      "è«¾": 6360,
      "è«Ľ": 6361,
      "è«Ń": 6362,
      "è¬Ķ": 6363,
      "æĶª": 6364,
      "æ´Ĵ": 6365,
      "çªħ": 6366,
      "æīĢçĪ²": 6367,
      "æīĢæ¨Ĥ": 6368,
      "èª°ä¸į": 6369,
      "èª°çķ¶": 6370,
      "èª°ä¿¡": 6371,
      "èª°èĤ¯": 6372,
      "æĬĦ": 6373,
      "å¤ļæĻĤ": 6374,
      "å¤ļå¥ĩ": 6375,
      "è»«": 6376,
      "éģĵå£«": 6377,
      "åĢ£": 6378,
      "åīįèº«": 6379,
      "åīįè³¢": 6380,
      "åīįè¼©": 6381,
      "äº¦ä½ķ": 6382,
      "åħ¬åŃĲ": 6383,
      "åħ¬è«ĸ": 6384,
      "å¤§äºĭ": 6385,
      "ä¸ĸæĥħ": 6386,
      "èģ²èī²": 6387,
      "æĭ¬": 6388,
      "å¯Ĵæ¢ħ": 6389,
      "å¯Ĵé¥ĳ": 6390,
      "åľ°ä¸ĭ": 6391,
      "éĨĸ": 6392,
      "éħĴæĹĹ": 6393,
      "å¤ľå¤ľ": 6394,
      "æĽ´æ¸ħ": 6395,
      "æºº": 6396,
      "æºī": 6397,
      "åĲįèĬ±": 6398,
      "è·¬": 6399,
      "è·ĭ": 6400,
      "çİīèī²": 6401,
      "åĿ¼": 6402,
      "æŁĿ": 6403,
      "å¹³å¦Ĥ": 6404,
      "å¹³å®ī": 6405,
      "å¹³å±ħ": 6406,
      "æĽ¸çĶŁ": 6407,
      "è£Ĭ": 6408,
      "è£Ľ": 6409,
      "æ°£åĳ³": 6410,
      "æ®ĸ": 6411,
      "éłŃä¸Ĭ": 6412,
      "éłŃè§Ĵ": 6413,
      "èĹģ": 6414,
      "éĿŀä¸į": 6415,
      "å¾ŀéłŃ": 6416,
      "å¾ŀè»į": 6417,
      "åįĹæ¥µ": 6418,
      "åįĹå¶½": 6419,
      "é©¤": 6420,
      "å®¢æĩ·": 6421,
      "å®¢èĩ³": 6422,
      "å®¢è£ı": 6423,
      "éĩįè¦ĭ": 6424,
      "èº«çĪ²": 6425,
      "èº«è¼ķ": 6426,
      "çķ¶éĸĢ": 6427,
      "é£ĽéĽ²": 6428,
      "ç¥ŀé¾į": 6429,
      "ç¥ŀéĿĪ": 6430,
      "æĸ¹ä»Ĭ": 6431,
      "éĽ£çĪ²": 6432,
      "çļ¦": 6433,
      "çĻ¾èĬ±": 6434,
      "çĻ¾äºĭ": 6435,
      "çĻ¾èįī": 6436,
      "çĻ¾æŃ¥": 6437,
      "æ£º": 6438,
      "å®īæķ¢": 6439,
      "ç¹ĩ": 6440,
      "ç¹Ĵ": 6441,
      "æ¶Ĥ": 6442,
      "åĴı": 6443,
      "éģİå¾ŀ": 6444,
      "è±Īå¦Ĥ": 6445,
      "è±ĪéĿŀ": 6446,
      "è±Īçķ°": 6447,
      "è±Īæķ¢": 6448,
      "è±Īå¾Ĵ": 6449,
      "å¹¾åĽŀ": 6450,
      "æµ·æ¿¤": 6451,
      "æµ·æ¿±": 6452,
      "å¥½å±±": 6453,
      "å¥½æĻ¯": 6454,
      "èİ«åĲĳ": 6455,
      "èİ«å«Į": 6456,
      "æ½ĺ": 6457,
      "æĢĿæŃ¸": 6458,
      "æŃ£çĽ´": 6459,
      "æŃ£èĤ¥": 6460,
      "çį¨è¡Į": 6461,
      "åĺ´": 6462,
      "æŃ²æĻı": 6463,
      "ç°ĭ": 6464,
      "åĦķ": 6465,
      "éĻ°éĻ°": 6466,
      "éĻ°å¾·": 6467,
      "èĭ¥æľī": 6468,
      "èĭ¥ä½ķ": 6469,
      "æ¾Ī": 6470,
      "å°ıçªĹ": 6471,
      "å°ıå¾ĳ": 6472,
      "èĸľ": 6473,
      "åħĪå¾Į": 6474,
      "é¾įéĸĢ": 6475,
      "ä»Ļç¿ģ": 6476,
      "æĩīéłĪ": 6477,
      "å±ħçĦ¶": 6478,
      "éĨīåį§": 6479,
      "æĿ¾çŃł": 6480,
      "æĿ¾æ¥¸": 6481,
      "å¹½èĬ±": 6482,
      "å¹½é¦Ļ": 6483,
      "å¹½å±ħ": 6484,
      "å¹½ç¦½": 6485,
      "æµ®èĲį": 6486,
      "çıª": 6487,
      "éļ¨èĻķ": 6488,
      "çķĻå®¢": 6489,
      "å°ĳéĻµ": 6490,
      "å°ĳäººçŁ¥": 6491,
      "æĻļé¢¨": 6492,
      "æķ¸æŀĿ": 6493,
      "æķ¸å°º": 6494,
      "åŃ¤æł¹": 6495,
      "åĹ·": 6496,
      "éĮĻ": 6497,
      "åĮĹæĸĹ": 6498,
      "çµĤæĺ¯": 6499,
      "å°ļåı¯": 6500,
      "ä¹ħçŁ£": 6501,
      "è¼ķéĩį": 6502,
      "èĦ¯": 6503,
      "ç«¹éĸĵ": 6504,
      "ç«¹å¤ĸ": 6505,
      "åį´æģĲ": 6506,
      "éĸĴéĽ²": 6507,
      "é¨ı": 6508,
      "å¿½é©ļ": 6509,
      "æīĭæĮģ": 6510,
      "æīĭæĬĬ": 6511,
      "å®ĺèģ·": 6512,
      "æĽ¾ä¸į": 6513,
      "æĽ¾çĦ¡": 6514,
      "å¾®åĲŁ": 6515,
      "å¤ªæ¸ħ": 6516,
      "å¤ªæģ¯": 6517,
      "çĥŁéĽ²": 6518,
      "çĥŁéĽ¨": 6519,
      "çİĭäºĭ": 6520,
      "çİĭåŃĲ": 6521,
      "æ³¢çĢ¾": 6522,
      "å¿ĺæŃ¸": 6523,
      "èħĳ": 6524,
      "çµķåĭĿ": 6525,
      "è¢ł": 6526,
      "æĳ¶": 6527,
      "æĳ¹": 6528,
      "åıªè¦ĭ": 6529,
      "éĢļå¤ķ": 6530,
      "æ¨ĵéłŃ": 6531,
      "æľ¨èĳī": 6532,
      "å°įä¹ĭ": 6533,
      "å°įéĿ¢": 6534,
      "æºªéłŃ": 6535,
      "å°ĭèĪĬ": 6536,
      "æ¼¢éĹľ": 6537,
      "æĦĽåĲĽ": 6538,
      "èĴ¼é¾į": 6539,
      "å¶¼": 6540,
      "çĵł": 6541,
      "å¤«åĲĽ": 6542,
      "è¹Ķ": 6543,
      "æŀĿä¸Ĭ": 6544,
      "åŃ¸éģĵ": 6545,
      "ç¿łèī²": 6546,
      "ç¿łå±ı": 6547,
      "éģºé¢¨": 6548,
      "èĻĽèĪŁ": 6549,
      "çĪ¾ä½ķ": 6550,
      "çĪ¾çĪ²": 6551,
      "æĲĹ": 6552,
      "çĴĭ": 6553,
      "èªªèĪĩ": 6554,
      "èĨ³": 6555,
      "ç´Ľç´ľ": 6556,
      "ä¾¿æ¬²": 6557,
      "æĸ·èħ¸": 6558,
      "ç²¾å¾®": 6559,
      "åħŃèĬ±": 6560,
      "åħŃé¾į": 6561,
      "ä¸¹å±±": 6562,
      "åĪ¥å¾Į": 6563,
      "æĴļ": 6564,
      "äºŃä¸ĭ": 6565,
      "æĻ´åµĲ": 6566,
      "çĢĨ": 6567,
      "åĹŁåĹŁ": 6568,
      "çĻ¼æı®": 6569,
      "åıĬæĻĤ": 6570,
      "éĢ£å¹´": 6571,
      "ç´«éĻ½": 6572,
      "ç´«å¾®": 6573,
      "èłģ": 6574,
      "èĶļ": 6575,
      "éĳ±": 6576,
      "ä¹ĺæ¡´": 6577,
      "ç¾£åĭķ": 6578,
      "å§ĭè¦ĭ": 6579,
      "å§ĭè¦º": 6580,
      "çªĹå¤ĸ": 6581,
      "èľ©": 6582,
      "çĬ§": 6583,
      "éĢģåĲĽ": 6584,
      "è«¸èĢģ": 6585,
      "è«¸ä¾¯": 6586,
      "åłªæĨĲ": 6587,
      "éª¨é«ĵ": 6588,
      "ç¤«": 6589,
      "æķĻåŃĲ": 6590,
      "ç¨®ç¨®": 6591,
      "æįķ": 6592,
      "å¯§çĦ¡": 6593,
      "å¯§å¾©": 6594,
      "çĩķåĿĲ": 6595,
      "èįĴåĩī": 6596,
      "éģ©æĦı": 6597,
      "å½¢å½±": 6598,
      "è»ĴåĨķ": 6599,
      "å«£": 6600,
      "æĮĩé¡§": 6601,
      "é¼ĵåĲ¹": 6602,
      "å£¯å¹´": 6603,
      "éļĶå²¸": 6604,
      "éļłéļł": 6605,
      "çŀ¿": 6606,
      "åį±è¨Ģ": 6607,
      "åį±äºŃ": 6608,
      "ç¾½è¡£": 6609,
      "åį§é¾į": 6610,
      "ç¶ŃæĻĤ": 6611,
      "æĶ¾æĩ·": 6612,
      "æĸľæļī": 6613,
      "æĸĹçīĽ": 6614,
      "èµ°é¦¬": 6615,
      "æľĢå®ľ": 6616,
      "æ¦®è¾±": 6617,
      "ä¹ŁéłĪ": 6618,
      "åĺīåĲį": 6619,
      "æ¶Īç£¨": 6620,
      "çĲ´æĽ¸": 6621,
      "è¡ĨçĶŁ": 6622,
      "éģ²éģ²": 6623,
      "çħ©åĲĽ": 6624,
      "è´į": 6625,
      "ç§Ģæ°£": 6626,
      "å°ģçĸĨ": 6627,
      "éģ¥çŁ¥": 6628,
      "ç±¬ä¸ĭ": 6629,
      "ä»°é¦ĸ": 6630,
      "ç¥ĸå®Ĺ": 6631,
      "å¼ķéłĺ": 6632,
      "æ¼«ç¿ģ": 6633,
      "ç«¥åŃĲ": 6634,
      "ä¸ĥå¹´": 6635,
      "éĽħæĦı": 6636,
      "åŃ°åı¯": 6637,
      "éĤ£åı¯": 6638,
      "æĭĤè¡£": 6639,
      "æĻĿå¤ľ": 6640,
      "æ¨½ä¿İ": 6641,
      "è¿½éļ¨": 6642,
      "èį·èĳī": 6643,
      "æµ©çĦ¶": 6644,
      "å»£å¯Ĵ": 6645,
      "å»£éĻµ": 6646,
      "æ¯«éĩĲ": 6647,
      "éģ¿æļĳ": 6648,
      "æĿ±é¢¨åĲ¹": 6649,
      "é©ħè»Ĭ": 6650,
      "æĿľéĸĢ": 6651,
      "æĿľéĻµ": 6652,
      "æĲºæīĭ": 6653,
      "å¾ģè¡£": 6654,
      "æ¸¾çĦ¡": 6655,
      "çıįéĩį": 6656,
      "çĩŁçĩŁ": 6657,
      "å¯¥èĲ½": 6658,
      "è²·å¾Ĺ": 6659,
      "æĺŃæĺŃ": 6660,
      "æ³ģä¹ĥ": 6661,
      "ç¹ģèı¯": 6662,
      "è©ĶæĽ¸": 6663,
      "é«ªçĻ½": 6664,
      "ç¥Ģäºĭ": 6665,
      "èĵ®èĬ±": 6666,
      "éı¡ä¸Ń": 6667,
      "å·®æ±ł": 6668,
      "æ«ª": 6669,
      "æ«º": 6670,
      "æ«Ľ": 6671,
      "ç®ĩä¸Ń": 6672,
      "æł½åŁ¹": 6673,
      "æ´»äºº": 6674,
      "é¬°é¬°": 6675,
      "å§ĳæ´Ĺ": 6676,
      "èŃ°è«ĸ": 6677,
      "çĥĪå£«": 6678,
      "çĪ½æ°£": 6679,
      "å»ºçĵ´": 6680,
      "é¦¨é¦Ļ": 6681,
      "åģĥè¹ĩ": 6682,
      "ç¶µè¡£": 6683,
      "æ³°å±±": 6684,
      "ç²²ç²²": 6685,
      "æı¡æīĭ": 6686,
      "å·įå·į": 6687,
      "åĲİåľŁ": 6688,
      "åģīåĵī": 6689,
      "æĭĪåĩº": 6690,
      "è¿¢è¿¢": 6691,
      "é©Ĥé¸ŀ": 6692,
      "é´Łå¤·": 6693,
      "å²·å³¨": 6694,
      "èºĭæĶĢ": 6695,
      "ç±©è±Ĩ": 6696,
      "ç·¬æĩ·": 6697,
      "çķİçķĿ": 6698,
      "èľ¿èľĴ": 6699,
      "æ»Ĥæ²±": 6700,
      "è©©æĺ¯çĶ°åľĴ": 6701,
      "èĤ¸èłģ": 6702,
      "èºĬèºĩ": 6703,
      "¬å¾¨": 6704,
      "¯éĦ": 6705,
      "ð¡": 6706,
      "Īå¥´": 6707,
      "Ķèĸĩ": 6708,
      "ľå¾ī": 6709,
      "æľ´": 6710,
      "éĽ¹": 6711,
      "å¾¬å¾¨": 6712,
      "å¾ľå¾ī": 6713,
      "æŃĺ": 6714,
      "ä¸įä¼ĳ": 6715,
      "ä¸įçĪ¾": 6716,
      "ä¸įåĭŀ": 6717,
      "ä¸įæĶ¾": 6718,
      "ä¸įæ¯Ķ": 6719,
      "ä¸įè¾¨": 6720,
      "éģı": 6721,
      "éģľ": 6722,
      "åį¦": 6723,
      "ä»Ģ": 6724,
      "ä»Ħ": 6725,
      "å¹Į": 6726,
      "å¹ĺ": 6727,
      "å°ĸ": 6728,
      "äººçĪ²": 6729,
      "äººæĢĿ": 6730,
      "äººå¯°": 6731,
      "èĪł": 6732,
      "å¿»": 6733,
      "ä¸Ģè·¯": 6734,
      "ä¸Ģå®ĺ": 6735,
      "ä¸ĢåĪ¥": 6736,
      "ä¸Ģåº¦": 6737,
      "ä¸Ģæı®": 6738,
      "ä¸Ģé£½": 6739,
      "å¯ħ": 6740,
      "çĶ¸": 6741,
      "æĽ¬": 6742,
      "çĦ¡é¢¨": 6743,
      "çĦ¡èªŀ": 6744,
      "çĦ¡éģº": 6745,
      "çĦ¡çķ°": 6746,
      "çĦ¡ç·£": 6747,
      "çĦ¡çĩŁ": 6748,
      "çĪį": 6749,
      "èĢĴ": 6750,
      "æľīå¤§": 6751,
      "æľīäºĮ": 6752,
      "æľīåĬŁ": 6753,
      "æľīæľŁ": 6754,
      "æľīåı£": 6755,
      "é¢¨é¦¬": 6756,
      "é¢¨åĬĽ": 6757,
      "å¦ĵ": 6758,
      "èģ¿": 6759,
      "å±±æľī": 6760,
      "å±±ä¾Ĩ": 6761,
      "å±±è¡Į": 6762,
      "å±±ç©º": 6763,
      "å±±å®¹": 6764,
      "æ¸Ŀ": 6765,
      "çķ§": 6766,
      "å¤©åħī": 6767,
      "å¤©è·¯": 6768,
      "å¤©é¦¬": 6769,
      "å¤©å·¥": 6770,
      "å¤©å¯¶": 6771,
      "å¤©éĸ½": 6772,
      "éłĴ": 6773,
      "ä¾Ĩèĩª": 6774,
      "ä¾Ĩçľĭ": 6775,
      "ä½ķåħ¶": 6776,
      "ä½ķæĥľ": 6777,
      "ä½ķåĺĹ": 6778,
      "æĻĤæĸ¹": 6779,
      "å¦ĤåĲĽ": 6780,
      "å¦Ĥå¤¢": 6781,
      "æĹ¥ä¸Ń": 6782,
      "èĩªåĸľ": 6783,
      "èĩªçĸĳ": 6784,
      "èĩªæĮģ": 6785,
      "çĪ²æĦĽ": 6786,
      "å¸ĺ": 6787,
      "åĽ·": 6788,
      "ä¸ŃæĽ¸": 6789,
      "ä¸Ńå¤ĸ": 6790,
      "çīĴ": 6791,
      "éĽ²éģİ": 6792,
      "éĽ²éĤĬ": 6793,
      "éļ°": 6794,
      "èĬ±èįī": 6795,
      "èĬ±æľ¨": 6796,
      "çĶŁæĪĲ": 6797,
      "çĶŁåīį": 6798,
      "çĶŁéĿĪ": 6799,
      "çĶŁçĲĨ": 6800,
      "éľį": 6801,
      "æŃ¤ä¸Ģ": 6802,
      "æŃ¤äº¦": 6803,
      "æŃ¤éļĽ": 6804,
      "ç¥²": 6805,
      "ç¥ģ": 6806,
      "ç¥ľ": 6807,
      "éĤ¯éĦ": 6808,
      "å¾ĹçĦ¡": 6809,
      "å¾Ĺå¾Ĺ": 6810,
      "å¾Ĺè¦ĭ": 6811,
      "å¾Ĺåľ°": 6812,
      "æĺ¥æĻĤ": 6813,
      "æĺ¥å·²": 6814,
      "æĺ¥æļī": 6815,
      "çŁ¥èª°": 6816,
      "æĪĳèĪĩ": 6817,
      "æĪĳä»¥": 6818,
      "æĪĳåħ¬": 6819,
      "æĪĳå°ĩ": 6820,
      "ä¼¶": 6821,
      "ä¼ģ": 6822,
      "åı¯çĦ¡": 6823,
      "çµ¹": 6824,
      "æ¸ħåħ¥": 6825,
      "æ¸ħä¸Ķ": 6826,
      "æ¸ħæ±ł": 6827,
      "æ¸ħå»Ł": 6828,
      "å¿ĥä¸į": 6829,
      "å¿ĥçŁ¥": 6830,
      "å¿ĥåľ¨": 6831,
      "å¿ĥç©º": 6832,
      "å¿ĥèĥ¸": 6833,
      "åīĸ": 6834,
      "çĽ¸èģŀ": 6835,
      "çĽ¸åĳ¼": 6836,
      "çĽ¸æĲº": 6837,
      "æ°´çŁ³": 6838,
      "æ°´éĿ¢": 6839,
      "ä¹ĭå¤ĸ": 6840,
      "ä¹ĭæ©Ł": 6841,
      "æľĪå½±": 6842,
      "è±¢": 6843,
      "åĨĹ": 6844,
      "åĬĪ": 6845,
      "æľªæĺ¯": 6846,
      "æľªäºĨ": 6847,
      "åŃĲä¸Ģ": 6848,
      "åŃĲä¹ĭ": 6849,
      "èĥĥ": 6850,
      "åĲĽçĪ²": 6851,
      "åĲĽèĥ½": 6852,
      "è²¼": 6853,
      "æ¼Ķ": 6854,
      "æĺ¯è¬Ĥ": 6855,
      "åľ¨å±±": 6856,
      "åľ¨æŃ¤": 6857,
      "æĩµ": 6858
    },
    "merges": [
      "ï ¼",
      "ï¼ Į",
      "ã Ģ",
      "ãĢ Ĥ",
      "ä ¸",
      "æ ľ",
      "ä º",
      "å ¤",
      "å ħ",
      "é Ľ",
      "å ¾",
      "å Ĳ",
      "æ Ń",
      "æ ĺ",
      "å ®",
      "å ı",
      "ä¸ į",
      "é ģ",
      "å į",
      "ä ½",
      "ä »",
      "å ±",
      "å ¹",
      "ç Ħ",
      "å °",
      "æ ĸ",
      "å ľ",
      "æ Ī",
      "è ĩ",
      "ç Ľ",
      "äº º",
      "æ Ļ",
      "é ĸ",
      "è Ī",
      "ä ¹",
      "å ¿",
      "ä¸ Ģ",
      "æ Ĺ",
      "ä ¾",
      "å ¯",
      "ç Ķ",
      "å Ń",
      "æ °",
      "æ Ľ",
      "¢ ¨",
      "å ·",
      "çĦ ¡",
      "é ĩ",
      "ç Ī",
      "è Ģ",
      "æľ ī",
      "é ¢¨",
      "ç Ł",
      "è ¡",
      "å Ī",
      "é Ŀ",
      "è ¦",
      "å ¦",
      "é Ģ",
      "è ģ",
      "é Ļ",
      "å± ±",
      "æ µ",
      "è ª",
      "ç Ļ",
      "æ ¸",
      "è Ĭ",
      "æ Ŀ",
      "ç ķ",
      "æ Ħ",
      "å¤ ©",
      "ç ľ",
      "é ł",
      "ä¾ Ĩ",
      "ç ´",
      "æ ī",
      "ä½ ķ",
      "æ ķ",
      "æĻ Ĥ",
      "æ ±",
      "æ ·",
      "å¦ Ĥ",
      "è Ĳ",
      "å ĭ",
      "å ¥",
      "æĹ ¥",
      "èĩ ª",
      "å ĩ",
      "çĪ ²",
      "å ¸",
      "ç §",
      "å Ľ",
      "æ ¨",
      "è Ļ",
      "ä¸ Ń",
      "ç «",
      "ç ī",
      "éĽ ²",
      "ç ¾",
      "è ©",
      "é ¦",
      "æ ³",
      "æ ĥ",
      "é ļ",
      "èĬ ±",
      "çĶ Ł",
      "è ¨",
      "é ľ",
      "æŃ ¤",
      "é «",
      "ç ¥",
      "å İ",
      "é Ĥ",
      "é £",
      "ç ©",
      "å £",
      "å¾ Ĺ",
      "æĺ ¥",
      "çŁ ¥",
      "æĪ ĳ",
      "ç ¿",
      "è ³",
      "ç İ",
      "ä ¼",
      "æ Ģ",
      "åı ¯",
      "ç µ",
      "æ¸ ħ",
      "å¿ ĥ",
      "å¹ ´",
      "ä ¿",
      "æ ¬",
      "è ĭ",
      "ä¸ Ĭ",
      "æ ²",
      "æ ŀ",
      "å ī",
      "è ¿",
      "çĽ ¸",
      "è ¼",
      "æ° ´",
      "ä¹ ĭ",
      "æľ Ī",
      "è ±",
      "å º",
      "å Ĩ",
      "ç ¶",
      "å Ĭ",
      "äº ĭ",
      "æľ ª",
      "åŃ Ĳ",
      "è ĥ",
      "é ħ",
      "è¦ ĭ",
      "åĲ Ľ",
      "è ²",
      "å ł",
      "å Ĥ",
      "æ ģ",
      "æ ¼",
      "æĺ ¯",
      "åľ ¨",
      "æ ĩ",
      "é ¡",
      "èĪ ĩ",
      "å ½",
      "é »",
      "è į",
      "ä¸ ĭ",
      "èĢ ģ",
      "è¡ Į",
      "è ī",
      "æĺ İ",
      "æŃ ¸",
      "é« ĺ",
      "å ¡",
      "ä¸ ī",
      "ä» Ĭ",
      "æ »",
      "ç§ ĭ",
      "èĲ ¬",
      "æ ļ",
      "æ ħ",
      "æ Ĩ",
      "åı ¤",
      "éĽ ¨",
      "ķ ·",
      "åİ »",
      "é ķ·",
      "å ¼",
      "è ¶",
      "å Į",
      "æ İ",
      "å· ²",
      "çĻ ½",
      "å Ł",
      "åħ ¶",
      "å ĸ",
      "ä» ¥",
      "æ± Ł",
      "è© ©",
      "æ Ĥ",
      "å ĳ",
      "åį ĥ",
      "ç ¬",
      "è ¥",
      "ç ĸ",
      "è º",
      "ç ¨",
      "è «",
      "ç ¦",
      "è µ",
      "æĪ Ĳ",
      "è ¬",
      "æ Ķ",
      "æ ´",
      "ç ª",
      "æī Ģ",
      "èª °",
      "é ³",
      "åĩ º",
      "æ Ĭ",
      "å¤ ļ",
      "è »",
      "éģ ĵ",
      "å Ģ",
      "åī į",
      "è §",
      "äº ¦",
      "åħ ¬",
      "æ ¥",
      "ç© º",
      "è ĳ",
      "æĦ ı",
      "ç į",
      "å¤ §",
      "ä¸ ĸ",
      "èģ ²",
      "æ ĭ",
      "å¯ Ĵ",
      "å® ¶",
      "åľ °",
      "å »",
      "é ¤",
      "ç Į",
      "é Ĩ",
      "çĦ ¶",
      "æ· ±",
      "éħ Ĵ",
      "å¤ ľ",
      "æ ¢",
      "æĽ ´",
      "èĻ ķ",
      "è Ĥ",
      "æ ¿",
      "æ º",
      "åĲ į",
      "æ¬ ²",
      "ç ħ",
      "è ·",
      "å ķ",
      "çİ ī",
      "æ ¯",
      "è İ",
      "å Ŀ",
      "ç ¯",
      "æ Ł",
      "è ı",
      "é Ĺ",
      "å¹ ³",
      "æĽ ¸",
      "è £",
      "æ° £",
      "æĿ ±",
      "æµ ģ",
      "ç Ń",
      "èĥ ½",
      "æ ®",
      "éł Ń",
      "è Ĺ",
      "åħ ¥",
      "é ĥ",
      "ç ĩ",
      "éĿ ŀ",
      "å¾ ŀ",
      "éĿ Ĵ",
      "éģ ł",
      "åį Ĺ",
      "æĸ °",
      "çĽ ¡",
      "éĸ Ģ",
      "æ ¹",
      "é ©",
      "è ¾",
      "è¥ ¿",
      "å® ¢",
      "éĩ į",
      "èº «",
      "çķ ¶",
      "æ Į",
      "çī ©",
      "é£ Ľ",
      "éĸ ĵ",
      "ç¥ ŀ",
      "é Ń",
      "éĸ ĭ",
      "å¾ ©",
      "ä½ ľ",
      "å ģ",
      "å §",
      "æľ Ŀ",
      "æĸ ¹",
      "æ ĵ",
      "è Į",
      "éĽ £",
      "éĩ ĳ",
      "ç ļ",
      "ç ²",
      "åį ģ",
      "ç ĥ",
      "è¨ Ģ",
      "çĻ ¾",
      "èī ²",
      "æ £",
      "å® ī",
      "ç ¹",
      "çľ ĭ",
      "èĢ ħ",
      "å° ĩ",
      "èĲ ½",
      "è Ń",
      "å¡ µ",
      "é¦ Ļ",
      "åĪ °",
      "æ ©",
      "æ ¶",
      "çŁ ³",
      "è Ĵ",
      "å Ĵ",
      "éģ İ",
      "è± Ī",
      "åĲ Į",
      "å¹ ¾",
      "çĮ ¶",
      "æ ¡",
      "æµ ·",
      "èį ī",
      "åħ ī",
      "å¥ ½",
      "å ĵ",
      "æ ı",
      "éĽ ª",
      "èİ «",
      "æ ½",
      "é ¾",
      "åĲ ¾",
      "æĢ Ŀ",
      "è ķ",
      "é» Ħ",
      "éł Ī",
      "æŃ £",
      "éĻ ½",
      "çį ¨",
      "å ĥ",
      "éĩ Į",
      "å ĺ",
      "èģ ŀ",
      "å¤ ĸ",
      "åĽ Ľ",
      "åŁ İ",
      "å ³",
      "è ĵ",
      "çľ Ł",
      "ç ģ",
      "æŃ ²",
      "æ¨ Ĥ",
      "æŀ Ĺ",
      "ç °",
      "è· ¯",
      "å Ħ",
      "å¾ Į",
      "ç¬ ĳ",
      "åĲ Ł",
      "æĥ ħ",
      "éĻ °",
      "ç ¸",
      "èĭ ¥",
      "ç Ĳ",
      "ä¼ ¼",
      "æ ¾",
      "æĸ ĩ",
      "å ¢",
      "å° ı",
      "ç ¢",
      "é Ł",
      "åħ ©",
      "åĪ Ĩ",
      "èµ ·",
      "é Ħ",
      "èĪ Ĭ",
      "æ ł",
      "è ĸ",
      "ç ·",
      "è ĺ",
      "æľ Ľ",
      "åħ Ī",
      "æ» ¿",
      "æŃ Į",
      "è¡ £",
      "é ¬",
      "é¾ į",
      "ä» Ļ",
      "å¤ ¢",
      "é¤ ĺ",
      "éĤ Ĭ",
      "æĩ ī",
      "é¦ ¬",
      "å± ħ",
      "èĢ Į",
      "éĨ ī",
      "æĿ ¾",
      "éĤ Ħ",
      "éĽ ĸ",
      "å¹ ½",
      "åľ ĭ",
      "æ° ĳ",
      "åĲ ĳ",
      "æµ ®",
      "åĽ ŀ",
      "ç ±",
      "é ¼",
      "ç ı",
      "éļ ¨",
      "è ®",
      "è¶ ³",
      "éĩ İ",
      "èı ¯",
      "çķ Ļ",
      "åķ ı",
      "å° ĳ",
      "æĩ ·",
      "æĻ ļ",
      "ä½ ¿",
      "æķ ħ",
      "åĤ ³",
      "åĿ Ĳ",
      "äº Į",
      "æķ ¸",
      "ç ½",
      "äº Ķ",
      "æ¨ ¹",
      "æ¹ ĸ",
      "ä¸ Ķ",
      "çľ ¼",
      "éľ ľ",
      "åŃ ¤",
      "å Ĺ",
      "é Į",
      "åĮ Ĺ",
      "çµ Ĥ",
      "å° ļ",
      "èĩ ³",
      "ä¹ ħ",
      "è¼ ķ",
      "é ½",
      "é º",
      "ç º",
      "è Ħ",
      "ç« ¹",
      "åį ´",
      "éĸ Ĵ",
      "çĶ ¨",
      "å ´",
      "ç¿ ģ",
      "é ¨",
      "ä¹ Ŀ",
      "èª ŀ",
      "è ½",
      "åı Ī",
      "å¿ ½",
      "åĬ Ľ",
      "å¾ ·",
      "åį Ĭ",
      "ç´ ħ",
      "æī ĭ",
      "åł Ĥ",
      "å¸ ¸",
      "æĺ ĵ",
      "éģ Ĭ",
      "è³ ¢",
      "ç¯ Ģ",
      "å® ĺ",
      "éĿ Ī",
      "ç ĳ",
      "å£ «",
      "ç Ĺ",
      "é §",
      "æĽ ¾",
      "åĪ Ŀ",
      "æ ¦",
      "å¾ ®",
      "åĬ Ł",
      "åĸ ľ",
      "æĺ Ķ",
      "å® ¹",
      "æ³ ī",
      "æ¢ ħ",
      "èĪ Ī",
      "å¤ ª",
      "é ´",
      "çª ®",
      "åħ ±",
      "çĥ Ł",
      "ç ĭ",
      "æĦ ģ",
      "è Ł",
      "æĥ Ł",
      "çİ ĭ",
      "æ³ ¢",
      "åĴ Į",
      "å¿ ĺ",
      "è ħ",
      "éľ ²",
      "èĬ ³",
      "é ¶",
      "çµ ķ",
      "è ¢",
      "å Ķ",
      "ç Ĩ",
      "æ ĳ",
      "é© ļ",
      "åħ Ĵ",
      "åı ª",
      "éĢ ļ",
      "è¿ ĳ",
      "é³ ´",
      "æ¨ ĵ",
      "éŃ ļ",
      "å ŀ",
      "ç ł",
      "æľ ¨",
      "å° į",
      "å ²",
      "éĢ ¢",
      "ä¿ Ĺ",
      "è» Ĭ",
      "æº ª",
      "æĸ ¼",
      "å° ĭ",
      "çĻ »",
      "æ¼ ¢",
      "å¾ Ģ",
      "æĦ Ľ",
      "èĴ ¼",
      "å ¶",
      "ç ĵ",
      "å¤ «",
      "åĭ ķ",
      "è ¹",
      "èĪ Ł",
      "ç¶ ĵ",
      "çĶ °",
      "é Ĭ",
      "æŀ Ŀ",
      "ç¶ ł",
      "èĳ Ĺ",
      "åŃ ¸",
      "éĿ ¢",
      "èĳ ī",
      "é ·",
      "ç ®",
      "æľ ¬",
      "çĽ ´",
      "ç¿ ł",
      "æľ Ł",
      "åħ ®",
      "å® ľ",
      "éģ º",
      "åº Ń",
      "æľ ĥ",
      "å· ŀ",
      "èĭ ¦",
      "éĹ ľ",
      "ä¼ ĳ",
      "èŃ ĺ",
      "åĲ Ī",
      "å® ļ",
      "èĻ Ľ",
      "åĭ Ŀ",
      "æĨ Ĥ",
      "æŁ ³",
      "åĽ ł",
      "ä» ¤",
      "ç¢ §",
      "çĪ ¾",
      "èĩ º",
      "æ Ĳ",
      "ä½ Ĩ",
      "èĩ ¨",
      "ç Ĵ",
      "èª ª",
      "è Ĩ",
      "ç´ Ľ",
      "ç¾ ©",
      "èķ Ń",
      "è¦ ª",
      "ä¾ ¿",
      "åĲ ¹",
      "æĸ ·",
      "æ² ³",
      "ç² ¾",
      "æĻ ¯",
      "è¼ ī",
      "æĤ ²",
      "ä¹ ĥ",
      "èģ ½",
      "è§ Ģ",
      "çĽ ®",
      "åħ Ń",
      "å½ ±",
      "æ¸ ¸",
      "å¾ ħ",
      "è¦ º",
      "æ± ł",
      "ä¿ ¡",
      "åĮ ĸ",
      "é³ ¥",
      "ä¸į åı¯",
      "çķ «",
      "ä¸ ¹",
      "éĸ ĳ",
      "åĪ ¥",
      "å ¨",
      "æ Ĵ",
      "äº Ń",
      "å¿ ħ",
      "ç £",
      "å® ®",
      "æĸ ¯",
      "æĻ ´",
      "æĦ Ł",
      "è« ĸ",
      "é ª",
      "éĽ ¢",
      "ç Ģ",
      "å¸ «",
      "éĦ ī",
      "å¥ ĩ",
      "äº ¤",
      "éĽ Ļ",
      "ç« ĭ",
      "é¦ ĸ",
      "åħ ĥ",
      "æĺ Ł",
      "æĹ ©",
      "åĹ Ł",
      "æĽ ī",
      "çĻ ¼",
      "çļ Ĩ",
      "å¤ ķ",
      "åı Ĭ",
      "å¯ Ħ",
      "éĢ £",
      "è£ ı",
      "åŀ Ĥ",
      "ç´ «",
      "è ł",
      "çķ °",
      "è Ķ",
      "é ĳ",
      "æĪ ĸ",
      "ä¹ ĺ",
      "æļ ®",
      "çĹ ħ",
      "è Ľ",
      "æŃ »",
      "é¡ §",
      "çħ §",
      "ç¾ £",
      "å® Ī",
      "æĹ ¢",
      "å§ ĭ",
      "çł ´",
      "ä¸ »",
      "çª Ĺ",
      "ä¾ Ŀ",
      "é¡ ĺ",
      "è ľ",
      "åı ĸ",
      "ç Ĭ",
      "é Ĳ",
      "åľ Ĵ",
      "éĢ ģ",
      "è« ¸",
      "èī ¯",
      "è² ´",
      "åł ª",
      "æģ ¨",
      "çŃ Ĩ",
      "éª ¨",
      "é ¥",
      "ç Ĥ",
      "æī į",
      "è§ £",
      "çħ Ļ",
      "ç ¤",
      "åľ Ł",
      "æķ Ļ",
      "ç Ŀ",
      "åľ ĸ",
      "è¦ ģ",
      "å¸ Ŀ",
      "ç¨ ®",
      "å¤ ±",
      "çĸ ĳ",
      "æ į",
      "éĿ ľ",
      "å³ °",
      "åı £",
      "å· Ŀ",
      "åĳ ½",
      "æ¥ µ",
      "éĥ ½",
      "åĥ §",
      "æŃ ¥",
      "å¯ §",
      "ç« ¯",
      "çĩ ķ",
      "åº ¦",
      "å¿ µ",
      "èį Ĵ",
      "åĳ ¼",
      "å ļ",
      "é¶ ´",
      "æķ ¢",
      "è½ ī",
      "é ĺ",
      "æ± Ĥ",
      "åĭ ŀ",
      "æĺ¥ é¢¨",
      "è °",
      "ä¸į çŁ¥",
      "åĵ ī",
      "æ ª",
      "åŃ Ĺ",
      "æĽ ²",
      "ç« ł",
      "æ© Ł",
      "è® Ĭ",
      "åĩ ī",
      "æĨ ¶",
      "èĹ ı",
      "éģ ©",
      "çĸ ı",
      "åħ «",
      "æ´ ŀ",
      "èĤ ¯",
      "è ¸",
      "åĭ ¢",
      "æ¥ ļ",
      "èĪ ī",
      "çģ «",
      "æ §",
      "å¯ Ĥ",
      "åĽ º",
      "èĸ Ħ",
      "éľ ŀ",
      "æĨ Ĳ",
      "å¾ Ĵ",
      "ä½ ³",
      "å° º",
      "è¨ ±",
      "åĨ ·",
      "å½ ¢",
      "è» Ĵ",
      "åĲ ³",
      "åŃ ĺ",
      "å· ĸ",
      "æĤ ł",
      "èģ ĸ",
      "é£ Ł",
      "èĭ ±",
      "æĮ ģ",
      "çļ ĩ",
      "ä¾ ¯",
      "èª ł",
      "é¡ Ķ",
      "æ® Ĭ",
      "å «",
      "å¯ ¦",
      "çĶ ±",
      "é ŀ",
      "åħ ¨",
      "åı ¥",
      "æł ¹",
      "å± ĭ",
      "æŃ ¡",
      "æµ ª",
      "æĢ ¥",
      "è¬ Ŀ",
      "éŁ ³",
      "é£ ²",
      "åł ±",
      "åĢ ļ",
      "æĮ ĩ",
      "é¼ ĵ",
      "æĥ ľ",
      "å£ ¯",
      "æ² Ļ",
      "æģ ¯",
      "æĶ ¶",
      "é µ",
      "èĪ ¹",
      "éĻ ³",
      "çī Ľ",
      "å¹ ¸",
      "çĪ Ń",
      "å¸ ¦",
      "äº İ",
      "åĭ ¤",
      "å¥ ³",
      "èĪ ŀ",
      "éĻ µ",
      "ç¿ »",
      "æ¡ ĥ",
      "æģ Ĳ",
      "è¬ Ĥ",
      "æģ ©",
      "æ® ĺ",
      "æ© «",
      "æĺ ı",
      "æķ £",
      "ç§ »",
      "ç¾ İ",
      "æ³ ķ",
      "éļ Ķ",
      "èĲ¬ éĩĮ",
      "å¿ Ĺ",
      "èģ Ĭ",
      "éļ ł",
      "æĬ Ĭ",
      "ç ŀ",
      "ç´ ł",
      "åĭ ¿",
      "ä¿ ±",
      "çĩ Ī",
      "è ŀ",
      "çµ ²",
      "åį ±",
      "ç¾ ½",
      "èĥ ¡",
      "åį §",
      "äº Ĥ",
      "åħ µ",
      "ä» »",
      "çĽ Ľ",
      "è¾ Ń",
      "é ı",
      "ç´ °",
      "æ· ®",
      "ç¶ Ń",
      "éĽ Ħ",
      "ä¸į è¦ĭ",
      "åĨ °",
      "å® ¿",
      "åĨ ł",
      "åĤ ·",
      "åį ·",
      "èĻ İ",
      "è¡ °",
      "çľ ł",
      "é İ",
      "å£ ģ",
      "çŁ £",
      "æĶ ¾",
      "æ¥ Ń",
      "çĶ ĺ",
      "è³ ¦",
      "åĤ ¾",
      "å¹³ çĶŁ",
      "æ¾ ¤",
      "é½ Ĭ",
      "çµ Ĳ",
      "åįĥ éĩĮ",
      "é³ ³",
      "åİ Ł",
      "èı Ĭ",
      "æĸ ľ",
      "æĿ ĳ",
      "æĸ Ĺ",
      "åº ķ",
      "é» ŀ",
      "ç¦ ®",
      "èµ °",
      "åĵ Ģ",
      "æľ Ģ",
      "èĩ £",
      "èĢ ³",
      "æ¦ ®",
      "ä¹ Ł",
      "æ³ ¥",
      "è² ł",
      "æĿ ¯",
      "æĥ ³",
      "åĬ į",
      "çĲ Ĩ",
      "çŁ Ń",
      "åĳ ¨",
      "åĺ ī",
      "è° ·",
      "æ¶ Ī",
      "çĲ ´",
      "è± ¡",
      "è Ŀ",
      "ä» ĸ",
      "çĶ ļ",
      "è¡ Ĩ",
      "åĳ ³",
      "æº Ĳ",
      "ç· £",
      "èĺ Ń",
      "åī ĩ",
      "è¿ ¹",
      "åļ ´",
      "åĨ ¥",
      "åĺ Ĺ",
      "éģ ²",
      "å· ¥",
      "åŃ «",
      "æ± Ŀ",
      "æĬ ±",
      "çħ ©",
      "çĽ ¤",
      "å£ ½",
      "å¡ ŀ",
      "å µ",
      "ç ĺ",
      "æŃ İ",
      "è¨ Ī",
      "å¾ ĳ",
      "æĪ ¶",
      "å¯ Į",
      "çĪ ¶",
      "ç© į",
      "å¤ ·",
      "ä¹ ¾",
      "å¯ ¶",
      "èĢ ķ",
      "æĢ §",
      "æŀ ¯",
      "äº ĳ",
      "åĲ ı",
      "åį ³",
      "æŀ ķ",
      "è¿ ·",
      "èĵ ĭ",
      "ç¸ ±",
      "å® ¤",
      "éĢ Ĳ",
      "æ´ Ĺ",
      "å¿ ł",
      "èĵ ¬",
      "å° ±",
      "éĻ ¶",
      "èµ ¤",
      "éĽ ·",
      "èĩ ´",
      "æ² Ī",
      "å¼ µ",
      "å¼ º",
      "æ¥ Ĭ",
      "æ¯ Ķ",
      "çı ł",
      "å Ļ",
      "è® Ģ",
      "äº Ĩ",
      "åĪ ©",
      "é¨ İ",
      "è ´",
      "é ĭ",
      "æ° ¸",
      "ç§ Ģ",
      "çī ĩ",
      "è© ¦",
      "è¨ ĺ",
      "æĬ ĺ",
      "èĮ ²",
      "é ±",
      "è» į",
      "å¦ Ļ",
      "è± Ĳ",
      "åĸ Ħ",
      "è§ Ĵ",
      "é Ī",
      "å° ģ",
      "éĸ £",
      "å¥ Ī",
      "è³ ŀ",
      "éģ ¥",
      "è¬ Ģ",
      "åĦ Ĵ",
      "åĶ Ĳ",
      "å ©",
      "æĦ §",
      "æ² »",
      "æİ ¥",
      "é¤ Ĭ",
      "è¾ ²",
      "éŃ Ĥ",
      "ç± ¬",
      "é´ »",
      "é ¸",
      "éģ Ĥ",
      "ä» °",
      "ç« Ł",
      "ç¾ ħ",
      "æ¸ħ é¢¨",
      "è¢ «",
      "æ ¤",
      "æļ ĳ",
      "æļ Ĺ",
      "åĢ Ĵ",
      "ç¯ ĩ",
      "æŃ ¦",
      "åį Ģ",
      "ä½ ı",
      "ç¥ ĸ",
      "åº ľ",
      "å½ ¼",
      "æŃ¸ ä¾Ĩ",
      "æ© ĭ",
      "äº Ī",
      "å£ ĳ",
      "å¢ ĥ",
      "é į",
      "è¦ ĸ",
      "æ· ¡",
      "å¸ Ĥ",
      "ç§ ¦",
      "è¿ İ",
      "å¼ ķ",
      "èĹ ¥",
      "éĮ ¦",
      "æ¢ ģ",
      "çŃ ĸ",
      "æĿ İ",
      "è« ĩ",
      "é£ Ħ",
      "èĥ ¸",
      "æ¼ «",
      "æ¼ ģ",
      "èĮ ħ",
      "å· §",
      "ç« ¥",
      "ä¸ ĥ",
      "ä» ģ",
      "ä» į",
      "å¤© åľ°",
      "é« ®",
      "æ¯ Ľ",
      "å ¬",
      "ä¸ Ī",
      "éĽ ħ",
      "åı ¢",
      "ä½ Ľ",
      "å° Ĭ",
      "åŃ °",
      "è³ ĵ",
      "ä¼ ´",
      "è² §",
      "ç¨ ±",
      "ç¦ ª",
      "çĥ ı",
      "éĢ ł",
      "å¥ Ķ",
      "éĤ £",
      "æĭ Ĥ",
      "åı ĭ",
      "æ· º",
      "èĮ «",
      "æ¼ ¸",
      "æļ ĸ",
      "ç¦ ı",
      "èĸ ¦",
      "æĻ Ŀ",
      "ä¹ İ",
      "å¦Ĥ ä½ķ",
      "çĻ½ éĽ²",
      "å¤ ı",
      "åı ĥ",
      "äºº éĸĵ",
      "åĩ Į",
      "æ¨ ½",
      "æĬ ķ",
      "çį »",
      "å» ¬",
      "éł Ĺ",
      "æ· ļ",
      "å¸ Ń",
      "æ±Ł æ¹ĸ",
      "éĦ °",
      "çĭ Ĥ",
      "å¶ º",
      "çĴ °",
      "éĽ ŀ",
      "è¨ ª",
      "ä¿ ®",
      "åķ ¼",
      "æ¡ ĳ",
      "æı ļ",
      "é¬ ¢",
      "åħ §",
      "èĪ į",
      "æ» Ħ",
      "é§ ķ",
      "æľ ±",
      "æŃ ¢",
      "éļ ª",
      "æİ ¨",
      "é¥ ĳ",
      "å¯ Ĩ",
      "å¤© ä¸ĭ",
      "å¥ ī",
      "è± ª",
      "é¡ ŀ",
      "å¼ Ħ",
      "è¶ Ĭ",
      "ä¸ ĺ",
      "åı į",
      "éĻ ¤",
      "ç´ Ħ",
      "åŁ ĥ",
      "ç¬ ¬",
      "éĥ Ĭ",
      "æĵ ¬",
      "å¯ º",
      "ä½ķ èĻķ",
      "è¿ ½",
      "åĢ Ł",
      "éĹ Ĭ",
      "æ¹ ĺ",
      "éģ Ķ",
      "éĩ £",
      "æĢ ª",
      "èĥ Į",
      "åįģ å¹´",
      "æ£ Ħ",
      "æı ®",
      "æ¸ ł",
      "æĥ ¡",
      "èį ·",
      "æħ °",
      "æ¿ Ģ",
      "æ£ ²",
      "æµ ©",
      "è¥ Ł",
      "æŃ ·",
      "èĻ Ł",
      "é¦ ³",
      "ç§ĭ é¢¨",
      "è¶ £",
      "å» £",
      "æ¯ «",
      "å ª",
      "å ¢¨",
      "é ®",
      "å¯ ¸",
      "éł »",
      "å¦Ĥ æŃ¤",
      "åĨ į",
      "é¡ Į",
      "åı¤ äºº",
      "èĤ ħ",
      "æ® ¿",
      "å± ¬",
      "çľ ī",
      "åĤ ¬",
      "åĤ į",
      "å´ ĸ",
      "æ¢ħ èĬ±",
      "å² ¸",
      "é ī",
      "éģ ¿",
      "ä½ İ",
      "å¿ į",
      "æ· µ",
      "åİ Ń",
      "æĨ ĳ",
      "æĶ ¿",
      "å» Ł",
      "éĮ ¢",
      "å¨ ģ",
      "ç¾ ŀ",
      "æĿ± é¢¨",
      "åģ ı",
      "æĺ ¨",
      "å® Ĺ",
      "å± ¤",
      "åĪ Ĺ",
      "æī ¶",
      "é£ ½",
      "åĸ §",
      "æ¯ ı",
      "é© ħ",
      "æĳ ĩ",
      "åľ ĵ",
      "æĿ ľ",
      "é¼ İ",
      "æĲ º",
      "å¾ ģ",
      "èª ¿",
      "æĭ ľ",
      "éĨ Ĵ",
      "æ¿ Ł",
      "åĲ «",
      "åı Ĺ",
      "æĹ ħ",
      "éĢ Ģ",
      "éļ Ľ",
      "èį Ĩ",
      "çĳ ¶",
      "ä¼ ı",
      "éĲ µ",
      "äº ķ",
      "å® ĩ",
      "æ¸ ¾",
      "æĿ ĸ",
      "æ¡ Ĥ",
      "èķ ©",
      "çº Ķ",
      "é· Ĺ",
      "åĽ °",
      "çİ Ħ",
      "æ¬ £",
      "èĭ Ķ",
      "çĸ İ",
      "åģ ¶",
      "çı į",
      "èħ ¸",
      "çĨ Ł",
      "éĬ Ģ",
      "é ¹",
      "å± Ī",
      "çĽ Ī",
      "ä¾ µ",
      "æĺİ æľĪ",
      "åĢ ¦",
      "çĩ Ł",
      "å®ī å¾Ĺ",
      "æ¶ ¯",
      "ç ³",
      "éģ ĩ",
      "æĸ ½",
      "æĹ ĭ",
      "ç¦ ½",
      "çĤ İ",
      "ç¤ ¾",
      "æĻ ¨",
      "éĸ ī",
      "çĦ¡ äºº",
      "çķ ı",
      "éļ ±",
      "ç© ¿",
      "éĥ İ",
      "ç£ ¨",
      "å® µ",
      "ä» ĺ",
      "å± ¢",
      "å¯ ¥",
      "éĢ ²",
      "ç´ ¯",
      "æī ¿",
      "è§ ´",
      "æ¿ ¤",
      "äº ¡",
      "åĲ Ħ",
      "æ· »",
      "éľ §",
      "å£ º",
      "çģ ĳ",
      "åĬŁ åĲį",
      "é¸ ŀ",
      "æĪ °",
      "ä¾ Ľ",
      "åĨ ¬",
      "è² ·",
      "ç¨ Ģ",
      "æĶ Ģ",
      "æĭ Ľ",
      "éŁ ¿",
      "é½ ĭ",
      "èĦ «",
      "â ĸ",
      "æĺ Ń",
      "å¯ «",
      "æ³ ģ",
      "ä¼ Ĭ",
      "éħ ¬",
      "è¶ ¨",
      "ç¹ ģ",
      "éį ¾",
      "âĸ ¡",
      "åı Ł",
      "æ² ī",
      "åĨ µ",
      "æ´ Ľ",
      "æ¿ ķ",
      "çķ¶ æĻĤ",
      "ç° ·",
      "ç½ ·",
      "éĽ Ĩ",
      "åı ²",
      "çĽ Ĭ",
      "å£ ĵ",
      "éĽ ģ",
      "ä¸į å¾Ĺ",
      "æĹ¥ æľĪ",
      "éľ Ħ",
      "é« Ķ",
      "éĹ ķ",
      "åį ĩ",
      "è¦ ı",
      "ç´ ¢",
      "æĤ Ł",
      "åĿ ¤",
      "é¬ ¼",
      "åħ ¼",
      "å¾ ¡",
      "å¾ ¹",
      "ä¸į èĥ½",
      "éĢ ¸",
      "è© Ķ",
      "é« ª",
      "æļ ĩ",
      "æĬ «",
      "æ¯ į",
      "æ½ Ķ",
      "æł ¼",
      "ä» £",
      "å¯ ¬",
      "å¦ ¨",
      "æ² Ĵ",
      "æļ «",
      "æħ ®",
      "å» ¢",
      "éĹ Į",
      "æ½ ®",
      "æµ® éĽ²",
      "åħ ·",
      "è¡ ¡",
      "æ¨ µ",
      "éħ Į",
      "åł ħ",
      "çŃ ī",
      "å¢ ®",
      "èĦ ļ",
      "éŀ Ń",
      "åħ į",
      "åį Ī",
      "å± ı",
      "å¹ ²",
      "æĹ ģ",
      "å¸ ĥ",
      "çī Ĩ",
      "çī Ļ",
      "ç¥ Ģ",
      "å¡ Ĺ",
      "ä»Ĭ æĹ¥",
      "å» ·",
      "èĴ Ļ",
      "æĽ ¹",
      "è¦ Ĩ",
      "åĩ ¡",
      "ç¾ Ī",
      "è© ±",
      "åİ ļ",
      "ç¨ į",
      "ç¹ ¼",
      "å³ ¯",
      "èĵ ®",
      "é® ®",
      "å° ¤",
      "åĪ Ģ",
      "ç¥ ł",
      "è¶ ģ",
      "åķ Ĩ",
      "éĥ ¡",
      "å« Į",
      "éı ¡",
      "åħ ¸",
      "è¡ ¨",
      "åĩ Ŀ",
      "ç« ¶",
      "éĤ ¦",
      "æĢ Ĵ",
      "æħ ¨",
      "ç¦ ģ",
      "çª º",
      "æ¿ ĥ",
      "ç° ¡",
      "æľ į",
      "äºº çĶŁ",
      "å¿ «",
      "å· ®",
      "éĢ Ķ",
      "éĻ į",
      "è¼ ¿",
      "æħ ¶",
      "æħ ļ",
      "éĥ Ń",
      "èĮ ¶",
      "åħĪ çĶŁ",
      "ä¸į éłĪ",
      "åį ł",
      "å· ¨",
      "ä½ķ æĻĤ",
      "åĸ ļ",
      "è· ¡",
      "çĵ Ĭ",
      "ä¸» äºº",
      "é ¯",
      "äº ¬",
      "å¾ Ĭ",
      "æĹ Ĺ",
      "é¢¨ éĽ¨",
      "èģ ļ",
      "çķ ¥",
      "èĻ ŀ",
      "æĥ ł",
      "æİ ĥ",
      "çı Ń",
      "æĳ §",
      "ç´Ľ ç´Ľ",
      "èľ Ģ",
      "éĲ ĺ",
      "å® ħ",
      "æĽ °",
      "é¢¨ æµģ",
      "å£ ĩ",
      "ä¼ ¯",
      "è¼ Ŀ",
      "çĸ Ĭ",
      "æ¢ Ŀ",
      "æ½ Ľ",
      "åĦ Ģ",
      "é¨ ·",
      "æĤł æĤł",
      "æ «",
      "è ¤",
      "æĺ ł",
      "åľ ĺ",
      "åŃ Ķ",
      "éĩ ĩ",
      "æĦ ļ",
      "ç¾ Ĭ",
      "ç¿ ¼",
      "çĽ¸ éĢ¢",
      "å½ Į",
      "æħ ķ",
      "æ® º",
      "è¥¿ é¢¨",
      "ç® ĩ",
      "çĿ ¡",
      "æĽ ł",
      "è¡ Ģ",
      "è¡ ĵ",
      "åĪ «",
      "åĪ ĩ",
      "èª ¤",
      "è© ł",
      "é£ ¯",
      "è¼ ©",
      "åº ·",
      "æ¼ ł",
      "æİ ©",
      "æ´ ²",
      "åľ į",
      "ä½ķ å¦Ĥ",
      "ç¢ ĳ",
      "ç½ ®",
      "éº ¥",
      "å® £",
      "å¸ Ĩ",
      "ç¥ ĩ",
      "é» ĳ",
      "çĸ ¾",
      "å§ Ķ",
      "æ½ ¤",
      "èĶ ½",
      "è¸ ı",
      "å± ķ",
      "éł ĺ",
      "æ³ Ľ",
      "ä¿ ¯",
      "è¼ ª",
      "åº ¶",
      "é» ĺ",
      "æħ Ī",
      "äº¦ æľī",
      "çĮ ¿",
      "æ¾ Ĺ",
      "æķħ äºº",
      "ç® ¡",
      "ä½ Ļ",
      "å· ¢",
      "çĦ¡ æīĢ",
      "ç´ Ļ",
      "å½ ¹",
      "çĻ½ æĹ¥",
      "ç¨ ĭ",
      "ç° ¾",
      "ç¸ ½",
      "å¢ ŀ",
      "å¤ķ éĻ½",
      "ä¸ ¦",
      "çĦ ī",
      "æĻ º",
      "èĪ Ĵ",
      "å· ±",
      "çĪ Ľ",
      "æ¸ ¡",
      "åı¯ æĨĲ",
      "æĩ ¸",
      "ç¹ «",
      "æł ½",
      "éĽ ľ",
      "ä¸į çĪ²",
      "éģ ·",
      "æľī é¤ĺ",
      "éļ İ",
      "ç© ´",
      "æ¬ Ħ",
      "æ´ ¥",
      "è¾ ±",
      "åģ ľ",
      "ç¹ ¡",
      "èĴ ²",
      "åĽŀ é¦ĸ",
      "é¨ °",
      "èħ ¹",
      "èŀ į",
      "å© ¦",
      "ä¸į å¦Ĥ",
      "ä¿ Ŀ",
      "æŀ ľ",
      "æ´ »",
      "è¾ °",
      "æĵ ģ",
      "æ£ ®",
      "åĺ ¯",
      "æĸĩ ç«ł",
      "èĽ Ł",
      "å® ´",
      "éģ £",
      "æĪ ²",
      "æĪ ¿",
      "éĩ ı",
      "å¸ ³",
      "æ» ħ",
      "åįĥ åı¤",
      "æĭ Ļ",
      "æŁ ĵ",
      "åģ ´",
      "çĻ¾ å¹´",
      "æ¡ Ĳ",
      "é¬ °",
      "ĺ å¾Ĭ",
      "å¾ ĺå¾Ĭ",
      "ä½ ©",
      "ä¸Ģ ç¬ĳ",
      "æĹ Į",
      "å¯ ŀ",
      "åĪ »",
      "æķ µ",
      "å¥ ı",
      "åĽ Ĭ",
      "æ¬ ¡",
      "è² »",
      "å§ ĳ",
      "æĵ ¾",
      "èŃ ·",
      "é± Ĺ",
      "åį ĳ",
      "å¹ ķ",
      "æĪ Ĵ",
      "å±± ä¸Ń",
      "éł ĥ",
      "è³ ¤",
      "æİ Ľ",
      "è« ĭ",
      "å» ¶",
      "è¾ ¨",
      "æ£ ł",
      "æŃ² æľĪ",
      "çº ĸ",
      "åĶ ±",
      "èĨ ı",
      "è ļ",
      "åħ Ħ",
      "æĹ ¦",
      "æ° ı",
      "æľī æĻĤ",
      "é¢¨ åĲ¹",
      "æĿ Ĳ",
      "åĩ ľ",
      "ç¶ ²",
      "æ» ´",
      "æŁ ı",
      "æ¾ Ħ",
      "åĶ ¯",
      "çĨ Ļ",
      "ä¸į æĺ¯",
      "å± ¥",
      "åŃ Ŀ",
      "éĻ ¸",
      "èª ¦",
      "èª ĩ",
      "å¤© åŃĲ",
      "ç´ Ģ",
      "çī ¹",
      "è¿ Ķ",
      "å½ Ī",
      "æŁ ±",
      "å§ ¿",
      "ç¸ £",
      "å· ¦",
      "åĭ ĩ",
      "åİ ¥",
      "ç¿ °",
      "åĲĽ åŃĲ",
      "è² Į",
      "æħ ĺ",
      "æ±Ł åįĹ",
      "æº «",
      "æĵ į",
      "é· º",
      "çĺ ¦",
      "çµ ĥ",
      "èĲ¬ äºĭ",
      "æ¯ ĭ",
      "æµģ æ°´",
      "éĿĴ å±±",
      "åģ ¥",
      "éĮ «",
      "ç²¾ ç¥ŀ",
      "éĺ ¿",
      "å° Ħ",
      "å· ¾",
      "éł Ĥ",
      "æĢ ¨",
      "åĤ Ļ",
      "æİ ¡",
      "åĳ Ĭ",
      "èĤ ¥",
      "èĹ ¤",
      "è¾ Ľ",
      "æ¾ ¹",
      "èĿ ¶",
      "èĥ¸ ä¸Ń",
      "ç ¼",
      "åı ³",
      "éģ ĭ",
      "è© ŀ",
      "ç¥ ¥",
      "éĤ ĳ",
      "è¶ ħ",
      "è§ ¸",
      "èŃ °",
      "æı Ĳ",
      "èĺ Ĩ",
      "å¯Ĥ å¯ŀ",
      "æľ ĭ",
      "æĪ Ģ",
      "æĿ ³",
      "æ± ²",
      "ç¾ ¨",
      "åĬ ©",
      "åĬ ł",
      "é¡ Ľ",
      "æİ Ĵ",
      "èª° çŁ¥",
      "æº Ł",
      "è£ ³",
      "é½ Ĵ",
      "çº Į",
      "é´ Ī",
      "è´ Ī",
      "ä¹ ŀ",
      "è¡ ²",
      "æ¸ º",
      "çķ Ŀ",
      "å¤© ä¸Ĭ",
      "æ³ £",
      "è³ ª",
      "çİ ©",
      "åł Ĩ",
      "æĩ ¶",
      "å¼ Ĺ",
      "æĤ µ",
      "è¬ ¾",
      "æľĿ å»·",
      "ç¹ ŀ",
      "é»Ħ éĩĳ",
      "åĦ ª",
      "éİ ĸ",
      "å¥Ī ä½ķ",
      "åĲ ¦",
      "éģ ķ",
      "å¯ ĵ",
      "è¦ ĵ",
      "çľ ¾",
      "æī ģ",
      "èī ·",
      "æĶ ¯",
      "çĩ Ń",
      "çĥ Ī",
      "èįī æľ¨",
      "æı Ĵ",
      "èĩ³ ä»Ĭ",
      "ä¹¾ åĿ¤",
      "éĽ ¶",
      "åĲ Ĳ",
      "åį °",
      "åį ľ",
      "çĶ ²",
      "éĻ ª",
      "çľ ģ",
      "çī §",
      "ç¥ ¿",
      "ç¿ ©",
      "è¿ ´",
      "æ¼ ı",
      "ä»Ĭ å¹´",
      "æİ Į",
      "åŁ ·",
      "æĤ £",
      "åįĥ å¹´",
      "çĸ Ĩ",
      "çĸ ĩ",
      "åģ ĩ",
      "èĺ ĩ",
      "ç± ł",
      "éº Ĺ",
      "çĳ ŀ",
      "è¹ ¤",
      "é¹ ¿",
      "æľ Ķ",
      "åħ ¹",
      "åĲ ģ",
      "ä¸į èĩª",
      "åľ ĥ",
      "å· ·",
      "çĪ Ĳ",
      "å±± å·Ŀ",
      "åĭ ī",
      "èĩª æľī",
      "ç§ ģ",
      "ç¾ ¤",
      "è³ ĩ",
      "æħ ĭ",
      "åįĥ è¼ī",
      "åĵ ģ",
      "ç· ¨",
      "çĹ ķ",
      "çĴ §",
      "éĳ ¿",
      "æĹ ±",
      "è¦ ½",
      "èģ ·",
      "çĻ ¡",
      "æī ī",
      "æī ĵ",
      "åĭ ³",
      "ä¿ ĥ",
      "è· ¨",
      "çķ¶ å¹´",
      "å¡µ åŁĥ",
      "æı Ľ",
      "èĺ ¿",
      "ç± į",
      "èĦ Ī",
      "è¢ ĸ",
      "çĻ» èĩ¨",
      "éĬ ħ",
      "èķŃ èķŃ",
      "é ¢",
      "æľ «",
      "åĲ ŀ",
      "çĦ¡ ä¸Ģ",
      "å¦ ¾",
      "çķ Į",
      "éĤ ª",
      "å£ ¤",
      "è³ £",
      "æ¬ ł",
      "èĭ Ł",
      "éĿĴ éĽ²",
      "æ¶ ¼",
      "æĴ «",
      "å¯Į è²´",
      "å¾ ĭ",
      "æŃ ³",
      "ä¸į æķ¢",
      "æĸ ĳ",
      "çĪ ½",
      "åĭ ¸",
      "å¥ ĳ",
      "åĩ Ħ",
      "å¸ Į",
      "éļ Ĩ",
      "ç¥ Ŀ",
      "ç¿ Ĵ",
      "æ¬ Ĭ",
      "è² ª",
      "å½ ©",
      "å¡ ĺ",
      "æİ ¢",
      "åĿ ¡",
      "æĮ ¯",
      "ç¥ŀ ä»Ļ",
      "å§ ĵ",
      "åħ ħ",
      "éģ Ĳ",
      "æĻ ī",
      "ä¸Ģ æĻĤ",
      "åŃ Ł",
      "éĢ į",
      "æŃ¤ æĻĤ",
      "æ¬ º",
      "éħ £",
      "å¼ ĵ",
      "å» º",
      "åģ ·",
      "æĳ ©",
      "èĽ ĩ",
      "éĢł åĮĸ",
      "ä¸ ģ",
      "å¾ ª",
      "éģ ¶",
      "éģ į",
      "èĩ ¾",
      "èģ ³",
      "éĻ £",
      "è¼ Ĵ",
      "æŃ¸ åİ»",
      "æ±Ł å±±",
      "æīĢ ä»¥",
      "åķ Ł",
      "æŁ Ķ",
      "éŃ ¯",
      "æ£ ¹",
      "åĻ ¨",
      "å¦ į",
      "éł ĵ",
      "æ¨ Ļ",
      "ç« ¿",
      "è³ ľ",
      "æ» Ķ",
      "å¼ Ł",
      "åŁ º",
      "ç¬ ¦",
      "æĶ ¹",
      "åĢ Ļ",
      "èİ Ĭ",
      "ç¯ ī",
      "è£ ľ",
      "ç² ī",
      "æ¶ ī",
      "é¾ ľ",
      "ç¤ º",
      "éİ ®",
      "å° ¾",
      "äºº å¿ĥ",
      "è¡ ®",
      "ä½ķ äºº",
      "æ· ¹",
      "è¨ Ń",
      "ä¼ Ĳ",
      "æĢ ķ",
      "ä¿ Ħ",
      "åł ¯",
      "åł ´",
      "ä¸ī å¹´",
      "çĸ ²",
      "ç¨ ½",
      "ç¦ ¹",
      "åĩº èĻķ",
      "è£ ĺ",
      "å§ ¦",
      "ç² Ł",
      "èŁ ²",
      "èŁ ł",
      "çĬ ¬",
      "å° Ī",
      "èĩ ĺ",
      "çŁ ľ",
      "éĢ Ĩ",
      "éĻ ¢",
      "éĻ Ĳ",
      "èĬ Ŀ",
      "æķ Ĺ",
      "èĲ į",
      "èĻ ¹",
      "èĻ ļ",
      "è± ģ",
      "æ´ ª",
      "èª° èĥ½",
      "èĤ ©",
      "åĿ ĩ",
      "åįĹ å±±",
      "å°ĩ è»į",
      "æ¶ ķ",
      "åĽĽ æµ·",
      "ç° ª",
      "ç· ©",
      "èŁ ¬",
      "çĨ ±",
      "æ¥Ĭ æŁ³",
      "åı ¸",
      "ä¸į è¶³",
      "çķ ª",
      "ä½ķ äºĭ",
      "ä½ķ éłĪ",
      "æķ ²",
      "èĲ Ĭ",
      "åī Ľ",
      "åŁ ĭ",
      "ç¨ »",
      "éłĪ èĩ¾",
      "èĸ °",
      "æ¤ į",
      "äº «",
      "åħ Ķ",
      "éģ ®",
      "æĪ İ",
      "æĻ ¦",
      "èĪ Į",
      "åĪ ¶",
      "éĢ ¾",
      "èģ ¯",
      "å±± æŀĹ",
      "æĿ Ł",
      "éļ ´",
      "èĲ¬ åı¤",
      "èĲ¬ çī©",
      "åĸ ª",
      "ç¬ Ľ",
      "è£ Ĥ",
      "æĵ Ĭ",
      "é»Ħ èĬ±",
      "ç¢ İ",
      "éº »",
      "å´ ĩ",
      "èł »",
      "æ§ İ",
      "æ¡ĥ èĬ±",
      "å® ĭ",
      "ä¸į å¾©",
      "åį Ĵ",
      "å¿ Ļ",
      "éĻ ĭ",
      "ç´ Ķ",
      "åĩ į",
      "ç© Ģ",
      "è³ Ī",
      "è¼ ĥ",
      "è± Ĩ",
      "æģ į",
      "èī ±",
      "åı¤ ä»Ĭ",
      "éķ· å®ī",
      "æ¿ ģ",
      "å¾ŀ æŃ¤",
      "çģ °",
      "å¶ ½",
      "é¥ Ĵ",
      "åįĢ åįĢ",
      "éĽ Ģ",
      "ä¸į çĶ¨",
      "éĸ Ń",
      "çĦ¡ å¿ĥ",
      "èĢ ĥ",
      "ä½ķ çĪ²",
      "ä¸Ń æľī",
      "æ³ Ĭ",
      "è¼ ¸",
      "åĨ ³",
      "åĬ ĩ",
      "é» į",
      "åİ» å¹´",
      "ç¦ ¾",
      "é¤ ¨",
      "çŃ Ķ",
      "çĩ Ĵ",
      "åĵ Ń",
      "æ¦ »",
      "èĬ³ èįī",
      "å¨ Ľ",
      "ç ¡",
      "å® ¸",
      "å± Ģ",
      "ä¸Ģ çīĩ",
      "æľī äºº",
      "è¡ Ŀ",
      "éĢ ¼",
      "éĢ ĥ",
      "å±± æ°´",
      "æµ ¦",
      "å¥ ®",
      "ç¿ Ķ",
      "å¹´ å¹´",
      "è¿ ¥",
      "åĬ ī",
      "è¡Į äºº",
      "åĮ ª",
      "çĻ½ é«®",
      "åĥ ¹",
      "ç° «",
      "çĲ ħ",
      "çĳ Ł",
      "çĵ ¦",
      "åµ Ĳ",
      "åª ļ",
      "éģ Ń",
      "åį ¿",
      "å¹ ¶",
      "ä¸Ģ æĹ¥",
      "éĢ Ł",
      "æ± Ĺ",
      "åĭ ģ",
      "çī Ģ",
      "æĺ¥ ä¾Ĩ",
      "æľĪ æĺİ",
      "åº Ĭ",
      "åº ı",
      "ç¶ º",
      "åĲĽ çľĭ",
      "ä¸ī åįģ",
      "æļ ī",
      "è¬ Ľ",
      "å³ ¨",
      "å¢ ľ",
      "éŁ ¶",
      "æīģ èĪŁ",
      "å¾ Ĳ",
      "åĲ ī",
      "ä» Ĺ",
      "äºº äºĭ",
      "ä¾ į",
      "çĦ¡ çª®",
      "éĢ ı",
      "æµ ¸",
      "èĩª æĺ¯",
      "ç¥ Ī",
      "å¼ ±",
      "çĻ½ éłŃ",
      "èº ¬",
      "çª ģ",
      "åĩº éĸĢ",
      "æ¢ ¢",
      "æ¿ ¯",
      "éŃ ı",
      "èķ ª",
      "éº Ł",
      "é´ ī",
      "èĨ ½",
      "çĢ Ł",
      "éĳ ĳ",
      "ä¸į åľ¨",
      "éĸ ²",
      "å¯ Ĳ",
      "å¦ ĸ",
      "æī ĩ",
      "ç© ¹",
      "è³ Ĭ",
      "ç¦ į",
      "æĿ± è¥¿",
      "æ® ·",
      "å¡µ åľŁ",
      "æ½ Ń",
      "èħ °",
      "é¶ ĳ",
      "åħŃ æľĪ",
      "çŀ »",
      "éģ Ļ",
      "ä½ į",
      "ä» ²",
      "ä» ķ",
      "ä¹ į",
      "æ¸ ļ",
      "ç´ į",
      "æī ĥ",
      "ä½ķ ä»¥",
      "åĩ ł",
      "çī ½",
      "ç¥ Ĺ",
      "æĺ¥ èī²",
      "æ² ½",
      "æģ °",
      "æ» ¯",
      "ä¸ĸ äºĭ",
      "é¤ Ĳ",
      "æ¹ ¯",
      "åĺ Ĩ",
      "åĲŁ è©©",
      "çµĤ æĹ¥",
      "èĦ ©",
      "å´ Ķ",
      "è¢ Ĥ",
      "è¢ į",
      "ä¸¹ éĿĴ",
      "èł ¶",
      "èľ Ĥ",
      "éĪ ŀ",
      "æĺ Į",
      "ä» ĭ",
      "çĽ Ł",
      "èĢ ¿",
      "å¦ »",
      "æ¸ Ľ",
      "èĬ Ĵ",
      "ä½ķ å¿ħ",
      "å£ ŀ",
      "èµ «",
      "éĨ ĩ",
      "èĤ Ĩ",
      "èĤ ī",
      "èĤ Ŀ",
      "æ¿ ±",
      "è¾ ¦",
      "æ£ ĭ",
      "åĥ ħ",
      "åĥ ı",
      "åĽĽ æĻĤ",
      "éŁ ĵ",
      "åĪĨ æĺİ",
      "èĺ ļ",
      "è½ į",
      "é§ Ń",
      "éĬ ·",
      "æĲ ľ",
      "æį Ĳ",
      "æ´ŀ åºŃ",
      "è®Ģ æĽ¸",
      "åħ Ģ",
      "åı ¬",
      "ä¸į çĽ¸",
      "éģ ¸",
      "èĩ Ĥ",
      "ä¸Ģ æŀĿ",
      "å¯ °",
      "çĦ¡ äºĭ",
      "éł Į",
      "æ· ·",
      "é¦ ¨",
      "ç© ©",
      "ç¶ ¸",
      "ç¶ ¿",
      "æħ ·",
      "ç¬ Ļ",
      "èº į",
      "ä¸ĸ éĸĵ",
      "æŁ ´",
      "èĹ ©",
      "èĹ ī",
      "éĥ ¨",
      "è±Ī çĦ¡",
      "æł ª",
      "èŁ ¾",
      "èĨ ļ",
      "æª »",
      "éĭ Ĵ",
      "âĸ¡ âĸ¡",
      "éĽ »",
      "äºº å®¶",
      "å¦Ĥ ä»Ĭ",
      "èĩª åı¤",
      "å¸ ¥",
      "è¨ Ĺ",
      "èĭ Ĺ",
      "åī ª",
      "æľª èĥ½",
      "è² «",
      "æ» Į",
      "åŁ ½",
      "èĳ Ľ",
      "æĭ ¾",
      "å» Ĭ",
      "æ¢ §",
      "èĴ ¿",
      "é¬ ļ",
      "éĮ ¯",
      "éº ¾",
      "å´ ĳ",
      "å¤ª å¹³",
      "æĥŁ æľī",
      "è¹ Ħ",
      "éĬ ľ",
      "æħ· æħ¨",
      "æľ ½",
      "å® ¦",
      "ä¸į åĪ°",
      "å± Ĳ",
      "ä¹ ³",
      "æ° Ľ",
      "èĬ ½",
      "éł ¹",
      "æķ Ī",
      "å¥ ļ",
      "çī ¢",
      "è± ¹",
      "åº §",
      "åº ¸",
      "åĲĽ ä¸įè¦ĭ",
      "æģ ¥",
      "æģ Ń",
      "é¡ ¯",
      "å¼ ¦",
      "å¤ļ å°ĳ",
      "åĢ ¼",
      "èĹ ľ",
      "åģ ĥ",
      "ç¹ ©",
      "èĲ½ æĹ¥",
      "æ¶ µ",
      "æĳ ĺ",
      "è»Ĭ é¦¬",
      "é· ¹",
      "ä¸Ī å¤«",
      "é¯ ¨",
      "æĸ §",
      "æĹ ¨",
      "å¯ ¡",
      "å¯ µ",
      "é¢¨ æľĪ",
      "éĻ Ħ",
      "ä½ķ æĹ¥",
      "æĪĳ ä¾Ĩ",
      "ä¿ İ",
      "è¿ Ĥ",
      "æħ İ",
      "çį ¸",
      "æĭ ³",
      "çĮ Ľ",
      "éĨ ľ",
      "èİ ½",
      "è£ ģ",
      "åįĹ åĮĹ",
      "æĵ ĩ",
      "èĮ Ĥ",
      "çĥ ¹",
      "æ¡ Ī",
      "åĵ ¦",
      "å°ĳ å¹´",
      "çº ĵ",
      "çĭ ¼",
      "çĭ Ģ",
      "çĭ Ĳ",
      "çĵ ľ",
      "è° ¿",
      "ç¼ º",
      "å® ³",
      "ä¸į åıĬ",
      "éģ ½",
      "ä½ Ĳ",
      "å¹ »",
      "å¯ ¢",
      "åŃ £",
      "åĪ ĳ",
      "èĬ ¬",
      "æĿ ı",
      "æĦ Ī",
      "ä½ķ æīĢ",
      "æ± Ļ",
      "æĹ¥ æĹ¥",
      "å¸ ·",
      "ç§ ĳ",
      "éľ ı",
      "åı¯ ä»¥",
      "ä¸Ĭ ä¸ĭ",
      "çĽ¸ æĢĿ",
      "è¼ Ķ",
      "ç¶ µ",
      "åł ¤",
      "æ¼ ²",
      "è©© äºº",
      "è©© æĽ¸",
      "åĢ ī",
      "æĿ± åįĹ",
      "çŃ µ",
      "éŃ Ħ",
      "æĵ ²",
      "å¹¾ æĻĤ",
      "å³ ½",
      "ç° ¿",
      "é§ Ĳ",
      "éĺ ²",
      "åµ ¬",
      "éĽ į",
      "æĺ Ĥ",
      "ä¸į èŃĺ",
      "ä¸į å¿į",
      "åį ļ",
      "æĪ ļ",
      "ä¸Ģ å¤ľ",
      "éĩ ĭ",
      "éĿ Ħ",
      "å¦ Ŀ",
      "éĢ Ŀ",
      "èĬ Ļ",
      "æķ ĳ",
      "å¥ ª",
      "æ³ °",
      "èĬ± éĸĭ",
      "éľ ½",
      "æĢ ¯",
      "ä¿ Ĭ",
      "è² ¬",
      "åĤ ²",
      "æ±Ł éłŃ",
      "æĤ ħ",
      "äº¦ ä¸į",
      "çį µ",
      "å¤ľ æ·±",
      "å¾ŀ ä¾Ĩ",
      "é© Ľ",
      "è¥¿ æ¹ĸ",
      "ç² §",
      "ç² ²",
      "çĻ¾ éĩĮ",
      "æ£ ĺ",
      "åĴ Ħ",
      "æı ¡",
      "æ½ ľ",
      "çģ ĺ",
      "ç¸ Ī",
      "è¡£ åĨł",
      "é¼ ł",
      "ç½ ª",
      "ç´ħ å¡µ",
      "å¤ª å®Ī",
      "çĥŁ éľŀ",
      "å² ³",
      "å¾Ģ å¾Ģ",
      "å¤« åŃĲ",
      "ç¬¬ ä¸Ģ",
      "éĽ ķ",
      "ä¸į çĦ¶",
      "æľī å®¢",
      "èª ħ",
      "çķ Ķ",
      "çľ ·",
      "ä½ķ çĶ¨",
      "å¥ ´",
      "æ¨ ¡",
      "éľ ĩ",
      "éľ ĸ",
      "æŃ¤ åľ°",
      "éĤ ĩ",
      "ç¿ ³",
      "çµ ®",
      "çµ ³",
      "åŁ Ł",
      "è» Ģ",
      "æĸ° è©©",
      "çļ İ",
      "åĴ ½",
      "åĥ »",
      "çĵ ¶",
      "çĬ ¯",
      "åı Ķ",
      "çĦ ļ",
      "æĪ Ī",
      "èĩ ¯",
      "äºº æĥħ",
      "ä¸Ģ èº«",
      "èĩª çĦ¶",
      "ç§ §",
      "æ³ ¨",
      "éĤ Ī",
      "çİ ĩ",
      "æľª å¿ħ",
      "ä¸ī æľĪ",
      "æ´ ¾",
      "æĭ Ķ",
      "æĮ ī",
      "åįĬ å¤ľ",
      "çĹ Ľ",
      "åħĴ ç«¥",
      "æ¡ĥ æĿİ",
      "èĮ« èĮ«",
      "å¾ §",
      "ä¸į æĪĲ",
      "ä¸į èĤ¯",
      "ä¸į å¦¨",
      "ä» ŀ",
      "å¹ ¹",
      "æĸ Ļ",
      "æĪ į",
      "äºº éĸĴ",
      "æĹ ¬",
      "å· Ĵ",
      "çĪ µ",
      "å±± ä¸ĭ",
      "æ¸ ´",
      "éł ¼",
      "éł Ĩ",
      "æ¨ ª",
      "è© ķ",
      "éļ ľ",
      "éľ ĵ",
      "èĭ ĳ",
      "æ² ¾",
      "è² ¯",
      "æ¼ Ĩ",
      "æĺ¯ éĿŀ",
      "ä»Ĭ æľĿ",
      "æ» ĭ",
      "èĳ ©",
      "æ¢ ¯",
      "å®ī çŁ¥",
      "ç¹ Ķ",
      "æ½ º",
      "éĦ Ļ",
      "å¹½ äºº",
      "æĸ¯ äºº",
      "èĶ ¡",
      "éŀ į",
      "éµ ł",
      "éĭ ¤",
      "èĽŁ é¾į",
      "è¡² åĥ§",
      "åħ ĭ",
      "åı ©",
      "åı °",
      "å° Ĩ",
      "æĸ Ĥ",
      "èĪ ľ",
      "ä¹ ĸ",
      "é¢¨ åīį",
      "åĪ º",
      "éĻ Į",
      "çķ ¢",
      "çĪ² æĪĳ",
      "æ¨ £",
      "ç¾ Į",
      "éļ ħ",
      "ä¼ ¸",
      "åĨ ¤",
      "æ» ĳ",
      "æĤ ´",
      "åįĥ èĲ¬",
      "åĢ «",
      "èĤ ²",
      "èĤ Į",
      "éĹ ¢",
      "éĸĢ åīį",
      "æĮ ¹",
      "ä½ľ è©©",
      "å§ ¬",
      "ç² Ĺ",
      "åĴ ¸",
      "è±Ī ä¸į",
      "æŃ² å¯Ĵ",
      "ç¸ ®",
      "ç± Ł",
      "é¼ »",
      "åĴĮ æ°£",
      "è¹ ĩ",
      "æĲ ĸ",
      "å¨ ¥",
      "éĳ Ĵ",
      "èĭ± éĽĦ",
      "èĥ¡ çĪ²",
      "éĪ İ",
      "é °",
      "å® Ļ",
      "ä¸į çĽ¡",
      "å¹ ħ",
      "åľ Ń",
      "æĪ ´",
      "èĪ ¬",
      "ä¸Ģ çĶŁ",
      "ä¸Ģ å¹´",
      "ä¸Ģ æľĿ",
      "å· ´",
      "å· į",
      "èĢ Ģ",
      "å¤© æ¶¯",
      "çĪ² èª°",
      "ç« Ĭ",
      "æŃ¤ å¿ĥ",
      "éĤ Ģ",
      "æĺ¥ ç§ĭ",
      "è³ ´",
      "å¹´ ä¾Ĩ",
      "æ¬ ¹",
      "æľª åĺĹ",
      "éħ ¸",
      "æĺİ æľĿ",
      "æĨ ¤",
      "æĦı æ°£",
      "çį ²",
      "æ¿ Ľ",
      "æ°£ è±¡",
      "çŃ į",
      "é© ķ",
      "è±Ī çŁ¥",
      "ç° ĩ",
      "ç¸ Ľ",
      "æ¾ Ĩ",
      "éŁ »",
      "é½ ¡",
      "åŀ £",
      "èĴ¼ èĴ¼",
      "çĶ± ä¾Ĩ",
      "éµ ²",
      "å¬ ī",
      "åĲ İ",
      "ä¸į å¾ħ",
      "åį ĵ",
      "ä¸Ģ é»ŀ",
      "å· Ķ",
      "è¡ ¢",
      "éĻ Ł",
      "æķ ¬",
      "æĻĤ ç¯Ģ",
      "åĩ °",
      "çī ²",
      "é¦ ¿",
      "æ¬ ¾",
      "çĽ¸ å¾ŀ",
      "çĽ¸ å°į",
      "åĨ ī",
      "éħ į",
      "å·² çŁ£",
      "æ±Ł ä¸Ĭ",
      "æĤ Ķ",
      "ç¨ ļ",
      "çª Ł",
      "è» ¸",
      "æĭ į",
      "å» ī",
      "éĨ «",
      "æŁ ¯",
      "è£ ¹",
      "æ¹ Ľ",
      "éĩį ä¾Ĩ",
      "æĵ ħ",
      "æ£ Ł",
      "åĥ ķ",
      "èĵ ī",
      "çģ £",
      "ç· ´",
      "ç± Į",
      "çº ı",
      "è½ ¡",
      "èĻĽ ç©º",
      "èĨ ł",
      "ç£ Ĭ",
      "èĶ ¬",
      "ä¾Ŀ èĪĬ",
      "çĤ Ĭ",
      "éĺ »",
      "å¬ Į",
      "æ»Ħ æµ·",
      "æĺ¨ å¤ľ",
      "èĬĻ èĵī",
      "äº Ĵ",
      "æŃ ĩ",
      "å® «",
      "ä¸į åĲĮ",
      "äºº çŁ¥",
      "ä¸Ģ ä½ķ",
      "çĶ «",
      "çĶ ³",
      "é¢¨ æ³¢",
      "æ¸ Ń",
      "ä½ķ æĽ¾",
      "æĻĤ æĻĤ",
      "æ· ³",
      "åĭ Ļ",
      "å¥ ł",
      "åĩ ĭ",
      "çŁ¥ éŁ³",
      "æŀ ī",
      "ç¶ ´",
      "æľª æĺĵ",
      "è¦ĭ èªª",
      "åĤ ĳ",
      "èī ĩ",
      "ä»Ĭ åı¤",
      "åįĥ éĩĳ",
      "ç¦ ±",
      "è¬ ģ",
      "æº Ŀ",
      "çħ Į",
      "æ® µ",
      "é© ¥",
      "éĩį éĻ½",
      "åģ ī",
      "çļ ®",
      "åįģ éĩĮ",
      "åįģ äºĮ",
      "æ© ĺ",
      "èĴ ¸",
      "çĮ¶ æľª",
      "æ¡ ĵ",
      "èŁ »",
      "åħĴ å¥³",
      "ä»¤ äºº",
      "çĢ ĳ",
      "æ ¢¨",
      "ä¸į èĪĩ",
      "ä¸į ä¼¼",
      "äºº è¨Ģ",
      "ä¹ ı",
      "çŁ ¯",
      "åĪ ®",
      "éĿ ¡",
      "æµ Ħ",
      "ä½ķ å¦¨",
      "èĩª çŁ¥",
      "å¸ ½",
      "ç« Ī",
      "ç« Ń",
      "éľ ĳ",
      "éĤ ģ",
      "ç© °",
      "å£ ĺ",
      "è³ Ģ",
      "æ¸ħ é¦Ļ",
      "çĽ¸ èĪĩ",
      "æļ Ŀ",
      "åĮ Ĩ",
      "åĸ ¬",
      "åĸ ®",
      "è« §",
      "èµ ´",
      "èª° èĪĩ",
      "èª° å®¶",
      "æ¥ ĵ",
      "æĭ Ī",
      "æĭ ĭ",
      "åĿ ¦",
      "è£ Ŀ",
      "æĿ± å±±",
      "é© Ł",
      "è¥¿ å±±",
      "åĴ «",
      "å¹¾ åº¦",
      "å¤ĸ çī©",
      "åĦ »",
      "ç¸ ·",
      "ä¹Ŀ éĩį",
      "é§ Ĵ",
      "å² Ĳ",
      "çĵ ¢",
      "ç® Ń",
      "éª ¸",
      "èł ²",
      "èł Ł",
      "è®Ĭ åĮĸ",
      "éµ ¬",
      "èıĬ èĬ±",
      "æĸľ éĻ½",
      "åĨ¥ åĨ¥",
      "æ»Ħ æµª",
      "éĸī éĸĢ",
      "ç¡ ¯",
      "å´Ķ åµ¬",
      "å¤ ®",
      "å¤ Ļ",
      "å¾ Ļ",
      "å® Ľ",
      "å¹ £",
      "çĦ ¦",
      "æĻ ı",
      "ä¸Ģ æĿ¯",
      "è¡ «",
      "çķ ¦",
      "å¤© æĦı",
      "æķ ´",
      "æ± Ģ",
      "çĪ² åĲĽ",
      "è© İ",
      "é¦ Ń",
      "æŃ¤ èº«",
      "æĪĳ äº¦",
      "ç§ĭ èī²",
      "æĬ ĳ",
      "éĹ Ķ",
      "èĹ »",
      "éĿĴ å¤©",
      "çĽ¡ æĹ¥",
      "èŃ ¦",
      "èŃ ½",
      "æ¶ ĵ",
      "å¹¾ å¹´",
      "èħ ¥",
      "ç¤ Ļ",
      "æį ²",
      "é¡Ķ èī²",
      "æ¶Ī æģ¯",
      "é± ¸",
      "ä¸į ä¾Ĩ",
      "çĽ ĥ",
      "äºº çī©",
      "é¢¨ éĽ²",
      "è¡ Ľ",
      "å±± èī²",
      "çľ ĩ",
      "éł ĳ",
      "åĩ Ī",
      "çĪ² ä¹ĭ",
      "ä¸Ń åİŁ",
      "æŃ¤ è¡Į",
      "ç© Ĩ",
      "çĽ¸ æľĽ",
      "ç¶ ±",
      "è¡Į è·¯",
      "è¬ ¹",
      "æ´ ĭ",
      "æĽ´ æľī",
      "æ¿ ¡",
      "ç¯ ·",
      "èı ²",
      "èı ľ",
      "å¹³ åľ°",
      "èĹ ¹",
      "èĹ į",
      "æĮ ½",
      "éĩĳ çŁ³",
      "åįģ æĹ¥",
      "èĲ½ èĬ±",
      "å³ »",
      "åĦ ĺ",
      "åĲĳ ä¾Ĩ",
      "çı ®",
      "çº į",
      "å² ¡",
      "æºª å±±",
      "çĻ» é«ĺ",
      "æĲ į",
      "ä¹ĥ çŁ¥",
      "çĢ Ľ",
      "çĬ Ģ",
      "éı ĺ",
      "å·¥ å¤«",
      "èĵ¬ èĲĬ",
      "éĭ ª",
      "è«ĩ ç¬ĳ",
      "åıĥ å·®",
      "å®ĩ å®Ļ",
      "ç¾Ī æĹħ",
      "ä¿¯ ä»°",
      "åĲģ åĹŁ",
      "åĴ« å°º",
      "Ĥ éĢ",
      "ãĢ Ķ",
      "ãĢ ķ",
      "å¤ ¾",
      "æŃ Ĩ",
      "åı «",
      "ä¸į ä½ľ",
      "ä¸į è¦º",
      "éĩ Ģ",
      "æµ ´",
      "èª į",
      "æ¸ ¬",
      "æĹ¥ å¤ľ",
      "ç§ ĺ",
      "ä¸Ń æµģ",
      "çĶŁ æĦı",
      "è¨ ĵ",
      "ç¥ ī",
      "éĤ ĤéĢ",
      "ç¿ ħ",
      "æ² ¿",
      "åī Ĭ",
      "è¿ º",
      "çĽ¸ è¦ĭ",
      "æ¼ ¾",
      "æ¼ Ĥ",
      "æĨ ļ",
      "åı¤ ä¾Ĩ",
      "è¶ Ļ",
      "åĮ ł",
      "çĻ½ çİī",
      "ç¬ ³",
      "è« Ĵ",
      "è¬ ł",
      "æĶ ¢",
      "èª° è¬Ĥ",
      "äº¦ åı¯",
      "æĭ ĺ",
      "å¤ľ éĽ¨",
      "æ¢ µ",
      "èİ ĸ",
      "æŁ Ħ",
      "çŃ Ĵ",
      "éĸĢ å¤ĸ",
      "æĮ Ĥ",
      "çĻ¾ å°º",
      "å¹¾ äºº",
      "æµ· ä¸Ĭ",
      "åĥ ŀ",
      "èĵ ĳ",
      "çģ ½",
      "åĦ ¼",
      "å¢ Ł",
      "èĺ ĭ",
      "äºĮ ä¸ī",
      "åĹ ¤",
      "èĦ Ĥ",
      "ä¾¿ æĺ¯",
      "èĶ ĵ",
      "é¡§ æĪĳ",
      "éĪ ´",
      "å© Ĩ",
      "æ·µ æĺİ",
      "æ¼ł æ¼ł",
      "éĢį éģ¥",
      "æ®· åĭ¤",
      "éĤĤéĢ ħ",
      "å± ¯",
      "çĽ į",
      "éĸ ¨",
      "ä¸Ģ è¦ĭ",
      "çĶ ķ",
      "å¦ Ħ",
      "ç´ º",
      "ç´ Ĺ",
      "æķ Ŀ",
      "æ· ª",
      "è¨ İ",
      "ç¥ Ń",
      "æĺ¥ åħī",
      "æĪĳ æ¬²",
      "åı¯ çŁ¥",
      "æĩ ¼",
      "åĮ ħ",
      "æİ Ģ",
      "ä»¥ çĪ²",
      "åĳ Ī",
      "èª° çĪ²",
      "æĬ µ",
      "å¤§ å¤«",
      "èģ² åĲį",
      "é¤ Į",
      "éĨ ª",
      "æ·± èĻķ",
      "èĹ ´",
      "èĮ ĥ",
      "èĮ Ĺ",
      "æı Ń",
      "åĽĽ æĸ¹",
      "ä½¿ æĪĳ",
      "äºĮ åįģ",
      "åĹ ļ",
      "èĨ Ŀ",
      "æĴ ²",
      "çĢ ¾",
      "çĢ ī",
      "ä¾Ŀ çĦ¶",
      "åħ« æľĪ",
      "æĺ¨ æĹ¥",
      "éĢį éģĻ",
      "å¾ Ĥ",
      "å® °",
      "å® Į",
      "ä¸Ģ éĨī",
      "æĽ ³",
      "åĪ ĥ",
      "éĢ ķ",
      "å±± æ²³",
      "æ· Ĵ",
      "åĩ ½",
      "èĻ ľ",
      "è¨ Ł",
      "ä¿ Ľ",
      "æ² ¸",
      "æŀ ¶",
      "åĨ ķ",
      "åĤ ħ",
      "æģ £",
      "é» ¯",
      "èĢģ ç¿ģ",
      "é«ĺ é¢¨",
      "é«ĺ æ¨ĵ",
      "èĲ¬ ä¸ĸ",
      "éģĵ è·¯",
      "çį Ħ",
      "æĭ Ħ",
      "æº ĸ",
      "ç¯ Ĩ",
      "éĿŀ æīĢ",
      "é© Ĺ",
      "æĵ ļ",
      "ç² ¹",
      "åĴ ¨",
      "å¹¾ ä½ķ",
      "çĮ¶ æľī",
      "éłĪ çŁ¥",
      "å¢ ³",
      "çĳ ©",
      "æ¦ Ĩ",
      "å¶ Ĥ",
      "éĬ ĺ",
      "é· Ħ",
      "ä¹ĺ èĪĪ",
      "èĽ Ļ",
      "çĬ ¢",
      "çĬ ģ",
      "æª ľ",
      "æĨ¶ æĺĶ",
      "è¸ Ī",
      "æ§ Ĳ",
      "éµ ĳ",
      "äºİ ä»Ĭ",
      "çĪ¶ èĢģ",
      "ç¸± æ©«",
      "è´ ı",
      "åº¶ å¹¾",
      "éĽ Ľ",
      "çĽ §",
      "å· µ",
      "çĦ¡ å¾©",
      "çĦ¡ å¥Ī",
      "çĦ¡ éĻĲ",
      "å¤© å¤ĸ",
      "å¤© çľŁ",
      "éł Ĳ",
      "ç§ ī",
      "èĻ Ķ",
      "æĥ ±",
      "æĥ »",
      "è¨ £",
      "éľ ¸",
      "è³ Ĵ",
      "æ² Ĳ",
      "åī Ŀ",
      "åº µ",
      "åĬ ª",
      "èĥ ¥",
      "æħ £",
      "å¼ Ĭ",
      "çĻ½ é¦ĸ",
      "æ±Ł æ°´",
      "æ±Ł æĿ±",
      "è¬ «",
      "æĶ »",
      "é³ ©",
      "è» Ł",
      "åĢ į",
      "ä¸ĸ äºº",
      "ä¸ĸ ä¿Ĺ",
      "æĭ ±",
      "æº ¢",
      "çħ ®",
      "çŃ ł",
      "éĿŀ æĺ¯",
      "çļ Ħ",
      "é»Ħ æĺı",
      "å³ ¶",
      "æł Ĺ",
      "é¬ Ń",
      "æĿ¾ æŁı",
      "çľ¼ åīį",
      "éº ĵ",
      "åłĤ åłĤ",
      "çĨ Ĭ",
      "æ²³ æ¼¢",
      "æĴ ¥",
      "æĴ ¼",
      "èĽ ©",
      "æĵ¾ æĵ¾",
      "å·¦ åı³",
      "æ²½ éħĴ",
      "æŃ Ł",
      "ä¸į èģŀ",
      "ä¸į åĭķ",
      "ä¸į åłª",
      "åį ī",
      "å¹ Ħ",
      "æĪ ª",
      "æĪ Ł",
      "éĸ ¬",
      "ä¾ ĳ",
      "å¯ Ľ",
      "å¯ Ł",
      "çĶ ·",
      "å· ¡",
      "çĦ¡ èĻķ",
      "çĦ¡ æĥħ",
      "æľī ç¥ŀ",
      "é¢¨ åħī",
      "å¦ ĥ",
      "å±± éłŃ",
      "æµ Ļ",
      "ç´ ³",
      "æķ ·",
      "æ± ¡",
      "å¥ ķ",
      "èĩª æĺĶ",
      "ç¾ ²",
      "ç¾ ¹",
      "æ³ ł",
      "èĬ± èĲ½",
      "éľ °",
      "æŃ¤ åİ»",
      "æ¸ħ æĺİ",
      "ä¸Ĭ å¸Ŀ",
      "è¿ ¢",
      "åĨ ¶",
      "äºĭ æ¥Ń",
      "æľª çŁ¥",
      "åŃĲ åŃ«",
      "æģ ¬",
      "æĺİ å¹´",
      "ä¸ī åįĥ",
      "èĲ¬ è±¡",
      "æħ µ",
      "éĽ¨ éģİ",
      "å¼ ı",
      "æİ ¾",
      "åŁ ¹",
      "æ±Ł æµ·",
      "æĤ ī",
      "ç¨ ľ",
      "è« «",
      "è¬ ³",
      "è» ĭ",
      "çŃ ĩ",
      "é© Ĥ",
      "è¾ Ł",
      "æĵ Ķ",
      "çĻ¾ èĲ¬",
      "åĲ¾ éģĵ",
      "åĥ ļ",
      "ç¢ Į",
      "èĸ ĩ",
      "é¬ ¬",
      "ç± ³",
      "ä½¿ åĲĽ",
      "æķħ éĦī",
      "æ³¢ æ¿¤",
      "æĸ¯ æ°ĳ",
      "æį ¨",
      "æį ·",
      "æª £",
      "æª Ħ",
      "æ»Ħ æºŁ",
      "æ´Ľ éĻ½",
      "é¬¼ ç¥ŀ",
      "æ»Ķ æ»Ķ",
      "Ķ æĤ´",
      "ä¸į å®¹",
      "ä¸į å¿ħ",
      "å± ¨",
      "çĽ £",
      "äºº æĦı",
      "å¿ Į",
      "ä¸Ģ èģ²",
      "ä¸Ģ è¨Ģ",
      "å· «",
      "çĪ °",
      "æľī æĦı",
      "é¢¨ èµ·",
      "é¢¨ éľľ",
      "éĿ ©",
      "éĻ Ľ",
      "æĦ ´",
      "å¤© åħ¬",
      "ç´ ĭ",
      "æī £",
      "åĩ Ń",
      "ä¸Ń ç§ĭ",
      "éľ Ĩ",
      "æŃ¤ èĬ±",
      "æŃ¤ äºĭ",
      "é« ¯",
      "åİ ²",
      "å¾Ĺ æĦı",
      "æĺ¥ æĦı",
      "æĢ ¡",
      "è¿ °",
      "çĽ¸ æľŁ",
      "è± «",
      "åĲĽ å®¶",
      "è² º",
      "æģ ĥ",
      "è¡Į è¡Į",
      "ä»Ĭ äºº",
      "æļ ´",
      "æĨ ĶæĤ´",
      "å¼ Ķ",
      "åĮ £",
      "æİ Ī",
      "çª Ħ",
      "ç©º å±±",
      "èĳ ¦",
      "æº ľ",
      "éĿĴ æĺ¥",
      "åįĹ åľĭ",
      "çļ ĵ",
      "èŃ ı",
      "éĻ½ æĺ¥",
      "åĽĽ éĿ¢",
      "çģ Į",
      "åĲŁ åĵ¦",
      "çĲ ¢",
      "å¢ ĵ",
      "æŃĮ èĪŀ",
      "é¾į èĽĩ",
      "åĽŀ éłŃ",
      "ç± ĥ",
      "çı Ĭ",
      "è® ĵ",
      "äºĮ æľĪ",
      "åĮĹ é¢¨",
      "çµĤ èº«",
      "å´ Ļ",
      "åłĤ ä¸Ĭ",
      "é´ Ľ",
      "æ¨ĵ èĩº",
      "å°ĭ å¸¸",
      "è¹ Ī",
      "ä½Ĩ æģĲ",
      "æĤ² æŃĮ",
      "ç£ ¬",
      "é¥ Ĺ",
      "æ§ ģ",
      "èģĸ è³¢",
      "èŀ º",
      "ç´° éĽ¨",
      "åı¢ æŀĹ",
      "è¤ Ĵ",
      "åĩľ åĩľ",
      "ç°¿ æĽ¸",
      "åĬª åĬĽ",
      "éģ ģ",
      "å± ¹",
      "å± ĳ",
      "éĸ Ļ",
      "å¿ Ŀ",
      "çĦ¡ çĶ±",
      "æľī å¦Ĥ",
      "æľī éħĴ",
      "éĢ Ļ",
      "æĿ ¥",
      "ç´ Ĩ",
      "æ· «",
      "å¦Ĥ éĽ²",
      "æĹ¥ æļ®",
      "çī ¡",
      "çī ĸ",
      "çĶŁ æ¶¯",
      "ç¥ ļ",
      "å¾Ĺ ä¹ĭ",
      "æ² ¹",
      "éħ ·",
      "è² ¡",
      "æģ ķ",
      "æ¼ ¿",
      "å½ ¥",
      "è¡Į æ¨Ĥ",
      "é«ĺ åį§",
      "å¡ Ķ",
      "ä¸ī å°º",
      "æħ Ļ",
      "éķ· åĺ¯",
      "åĮ Ŀ",
      "ç¬ ł",
      "ç¨ ·",
      "ç¨ ¼",
      "æĬ Ĺ",
      "åĢ ı",
      "å¤ľ æľĪ",
      "æĽ´ çĦ¡",
      "èĻķ èĻķ",
      "åķ Ħ",
      "åĿ İ",
      "æ¹ §",
      "è¥¿ åįĹ",
      "ç¥ŀ ä¹ĭ",
      "éŃ Ķ",
      "ç² ±",
      "èŃ ¬",
      "è±Ī æĺĵ",
      "å¥½ äºĭ",
      "åĲ¾ èģŀ",
      "èķ ĥ",
      "çį¨ å¾Ģ",
      "æŀĹ ä¸ĭ",
      "çĲ ³",
      "ä»Ļ äºº",
      "æĿ¾ é¢¨",
      "éĽĸ æľī",
      "æĩ· æĬ±",
      "ç½ į",
      "å´ ©",
      "é§ ¿",
      "é§ Ł",
      "å®¹ æĺĵ",
      "èŁ Ħ",
      "çĨ ı",
      "çł Į",
      "çĵ ı",
      "ç¿ł å¾®",
      "åħŃ åįģ",
      "çķ« åľĸ",
      "èĶ Ń",
      "åħ« åįģ",
      "è¸ Ĳ",
      "å« ©",
      "èĢ³ çĽ®",
      "æŃİ æģ¯",
      "é¹ ½",
      "ç¿© ç¿©",
      "å´ĳ å´Ļ",
      "· å½",
      "éĽ ī",
      "æŃ Ľ",
      "æĺ §",
      "å° ¹",
      "å° ¼",
      "æĹ ĥ",
      "æĹ ı",
      "çĦ¡ ç«¯",
      "æľī çĦ¡",
      "æľī æŃ¤",
      "çŁ ¢",
      "éĢ ĭ",
      "éĻ Ĥ",
      "æĦ ľ",
      "å¤© æĻĤ",
      "çľ ¸",
      "ä½ķ æľī",
      "ä½ķ å¹´",
      "ä½ķ çķ¶",
      "èĲ Į",
      "åĽ Ĥ",
      "æĥ Ĩ",
      "æĥ ļ",
      "éļ Ļ",
      "é£ ¾",
      "åı¯ æĥľ",
      "æ¬ ½",
      "æ² ĥ",
      "çĽ¸ çŁ¥",
      "è± Ķ",
      "åº ¾",
      "ç¶ ¬",
      "æľª åħį",
      "åĲĽ çİĭ",
      "è² ¢",
      "å½ ·å½",
      "é» İ",
      "èĢģ ä¾Ĩ",
      "èĢģ åŃĲ",
      "èĢģ è¾²",
      "æ» Ĥ",
      "åı¤ æľ¨",
      "åħ¶ éĸĵ",
      "è¬ ¨",
      "è· ³",
      "æ¯ Ĵ",
      "ç¯ Ļ",
      "çŃ ĭ",
      "å¾ŀ ä»Ĭ",
      "æĮ º",
      "åĪ° æŃ¤",
      "æ¶ ²",
      "åĲĮ ä¸Ģ",
      "å¹¾ æĹ¥",
      "é¾ Ĳ",
      "èģŀ éģĵ",
      "åĽĽ åįģ",
      "åĦ Ħ",
      "å¢ Ģ",
      "èĺ Ĥ",
      "å¤¢ ä¸Ń",
      "ä½¿ èĢħ",
      "è½ Ł",
      "ç¯Ģ çī©",
      "çĳ ķ",
      "çĶ° åľĴ",
      "èķŃ çĦ¶",
      "å¨ Ł",
      "æĴ Ń",
      "æĦŁ æħ¨",
      "çĿ Ģ",
      "å¯Ĥ å¯¥",
      "æ®Ĭ æľª",
      "å« ģ",
      "å£¯ å£«",
      "éı Ĺ",
      "åĨ° éĽª",
      "èĻİ è±¹",
      "é³³ åĩ°",
      "æĥ³ è¦ĭ",
      "åµ ©",
      "æ¨½ éħĴ",
      "å½·å½ ¿",
      "äº Ł",
      "å¤ Ń",
      "éģ ¼",
      "ä½ ł",
      "éĸ ©",
      "æĹ Ħ",
      "æĹ Ĩ",
      "ä¾ ¶",
      "çĦ¡ çĸĨ",
      "éĩ Ĳ",
      "æľī éģĵ",
      "é¢¨ çī©",
      "é¢¨ éľ²",
      "è¡ Ĺ",
      "éĿ Ļ",
      "å±± åīį",
      "èª ²",
      "æĿ ¿",
      "å¤© å¯Ĵ",
      "åĭ Ĵ",
      "èĩª åľ¨",
      "å¸ Ľ",
      "èĻ §",
      "èĻ ¬",
      "ç« ĩ",
      "çī ĭ",
      "æ³ ĵ",
      "æŃ¤ æĦı",
      "æĺ¥ æ·±",
      "æĪĳ çĶŁ",
      "æĪĳ å¿ĥ",
      "çµ ¡",
      "ä¸Ĭ å¤©",
      "æ² ¼",
      "æ² ĸ",
      "è¿ ¸",
      "åł µ",
      "æģ ¤",
      "èĪĩ åĲĽ",
      "é«ĺ å±±",
      "ä¸ī æĹ¥",
      "èĲ¬ éłĥ",
      "çĻ½ é·Ĺ",
      "çĻ½ é«ª",
      "æ±Ł æ¼¢",
      "è¥ ²",
      "é³ §",
      "å¤ļ è¬Ŀ",
      "åīį æĹ¥",
      "æ¥ «",
      "é¤ ĵ",
      "èı ´",
      "è£ ¾",
      "æĿ± ç±¬",
      "éĥ µ",
      "æĮ ¾",
      "ç¥ŀ æĺİ",
      "çĥ ½",
      "åħī éĻ°",
      "æŃ£ æĺ¯",
      "å³ Ń",
      "æĸĩ åŃĹ",
      "éĦ Ń",
      "æł ¡",
      "éĩİ äºº",
      "ç½ Ķ",
      "åĹ ľ",
      "èĦ ±",
      "æ¦ Ľ",
      "å¿ĺ è¨Ģ",
      "çĨ Ĵ",
      "å² ĳ",
      "çĽ® åīį",
      "æĦŁ æ¿Ģ",
      "çĤ ¯",
      "è¸ °",
      "éŀ ĭ",
      "æ³¥ å¡Ĺ",
      "ä»ĸ æĹ¥",
      "çĪ¶ æ¯į",
      "æŀķ ä¸Ĭ",
      "å¿ł ç¾©",
      "å¥Ķ èµ°",
      "éĤ£ å¾Ĺ",
      "æ¨½ åīį",
      "èįĨ æ£ĺ",
      "å¯¥ å¯¥",
      "åĦª æ¸¸",
      "æ·¹ çķĻ",
      "è´ı å¾Ĺ",
      "æĥĨ æĤµ",
      "åħ Ĩ",
      "åĲ ł",
      "ä¸į ä»¥",
      "ä¸į ç¦ģ",
      "åį Ķ",
      "çĽ ¼",
      "æĻ ®",
      "æ° Ī",
      "è¡ ·",
      "éł ·",
      "ä½ķ çī©",
      "ä½ķ çĶ±",
      "å¦Ĥ æľī",
      "èĩª å¾Ĺ",
      "èĩª è¶³",
      "è© ¢",
      "è© ³",
      "é¦ ´",
      "æ³ ¯",
      "æ³ Ĺ",
      "æĥ ĳ",
      "éļ Ĭ",
      "åİ ¨",
      "éĤ ±",
      "ç¿ ¹",
      "çĽ¸ è¦ª",
      "è± İ",
      "èĥ İ",
      "è² ŀ",
      "æ¼ ª",
      "é¡ Ĩ",
      "å½ Ń",
      "èĢģ äºº",
      "æĺİ æĹ¥",
      "å¡ ¢",
      "ç§ĭ ä¾Ĩ",
      "æļ Ħ",
      "è¬ ¬",
      "æĬ ½",
      "éģĵ äºº",
      "å®¶ æľī",
      "æ¢ ³",
      "çħ İ",
      "è£ ½",
      "éĥ ¢",
      "å¾ŀ å®¹",
      "å¾ŀ æķĻ",
      "é© ª",
      "çķ¶ æĹ¥",
      "ç¹ Ń",
      "çľĭ èĬ±",
      "æı ĸ",
      "éĽª æ»¿",
      "èĵ ¼",
      "åĦ Ķ",
      "ç¬ĳ èªŀ",
      "èĸ ª",
      "å¤¢ éŃĤ",
      "éĽĸ çĦ¶",
      "æķ¸ èģ²",
      "äºĶ åįģ",
      "åĹ £",
      "çº ľ",
      "çĳ £",
      "é§ ¡",
      "æ¦ Ń",
      "é´ Ł",
      "èĬ³ èı²",
      "è¿ĳ ä¾Ĩ",
      "å² «",
      "éĢ¢ äºº",
      "å¾Ģ äºĭ",
      "æľ¬ çĦ¡",
      "èķŃ æ¢Ŀ",
      "æ±ł ä¸Ĭ",
      "èĽ ¾",
      "çĿ ¨",
      "æį §",
      "æį «",
      "éĺ ®",
      "èģĸ äºº",
      "éĻ³ è¿¹",
      "æĬĬ éħĴ",
      "çŀ ³",
      "éİ ¸",
      "è¨ĺ å¾Ĺ",
      "éī ŀ",
      "ç³ §",
      "é¯ ī",
      "éłĥ åĪ»",
      "çĢŁ æ¹ĺ",
      "åħ ĩ",
      "ä¸į æľ½",
      "éģ ŀ",
      "å° ī",
      "äºº ä¸į",
      "éĸ Ł",
      "èĪ Ĥ",
      "ä¸Ģ æ°´",
      "ä¸Ģ æĹ¦",
      "çĦ¡ æĻĤ",
      "çĦ¡ åľ°",
      "çĦ¡ æķ¸",
      "èĢ ½",
      "æľī æīĢ",
      "å±± éĻ½",
      "èª ĵ",
      "å¤© æ°£",
      "çľ º",
      "ä½ķ è¶³",
      "æĹ¥ å·²",
      "ç§ ©",
      "ç§ Ł",
      "æ¨ Ĭ",
      "è© £",
      "è© «",
      "ç© ¶",
      "æĪĳ æľī",
      "ç¿ ®",
      "çİ ²",
      "ä¹ĭ åŃĲ",
      "åĨ Ģ",
      "ç¶ ĥ",
      "æľª è¦ĭ",
      "åł ŀ",
      "æ¼ £",
      "å½ İ",
      "èĢģ åİ»",
      "æĺİ çıł",
      "ä¸ī å¾ĳ",
      "æħ Ł",
      "åı¤ é¢¨",
      "åı¤ éģĵ",
      "éķ· é¢¨",
      "æİ ¬",
      "åĸ ī",
      "è©© æĪĲ",
      "åĳ Ĥ",
      "äº¦ èĩª",
      "ä¸ĸ ä¸Ĭ",
      "æĭ Ĩ",
      "èĤ º",
      "èĹ Ŀ",
      "éģł è¿ĳ",
      "è¥¿ åĮĹ",
      "éŃ ģ",
      "æĸ¹ çŁ¥",
      "æĵ İ",
      "ç² Ĵ",
      "æµ· æ£ł",
      "å¥½ é¢¨",
      "åĵ ²",
      "èķ Ĭ",
      "åĺ »",
      "åŁİ éĥŃ",
      "å³ Ļ",
      "åĦ Ĥ",
      "åĦ ī",
      "èĪĬ æĻĤ",
      "æł ĸ",
      "æĿ¾ ç«¹",
      "æµ® çĶŁ",
      "äºĮ åįģå¹´",
      "æ¹ĸ ä¸Ĭ",
      "çľ¼ æĺİ",
      "åĮĹ çªĹ",
      "å´ İ",
      "è³¢ èĢħ",
      "çĭ ¹",
      "åħĴ åŃ«",
      "å² ·",
      "å¾Ģ ä¾Ĩ",
      "èĨ º",
      "åĮĸ å·¥",
      "åĪ¥ éĽ¢",
      "äºŃ äºŃ",
      "å§ĭ çŁ¥",
      "éĺ ¡",
      "èĥ¡ ä¸į",
      "åºķ äºĭ",
      "çĺ ´",
      "èĮħ å±ĭ",
      "è²§ è³¤",
      "æµ© èķ©",
      "éī ı",
      "æĿľ éµĳ",
      "éĹĮ å¹²",
      "åĩĦ åĩī",
      "ä¸į éģĵ",
      "ä¸į å¹³",
      "ä¸į æŃ»",
      "ä¸į é¡ĺ",
      "å¹ ¼",
      "èĩ Ĩ",
      "çĽ ľ",
      "ä¾ Ī",
      "å· ³",
      "çĦ¡ å¤ļ",
      "çĦ¡ è¨Ģ",
      "é¢¨ æĻ¯",
      "éĿ ĸ",
      "è¦ ©",
      "èģ ¾",
      "å±± éĽ²",
      "å¤© é«ĺ",
      "éł ¤",
      "ç´ ¹",
      "ä½ķ è¨±",
      "æ± ©",
      "æ± º",
      "åĭ »",
      "åĩ ¶",
      "çĪ² åľĭ",
      "ç« ħ",
      "éĽ² éľ§",
      "é¦ ¥",
      "é« ĵ",
      "ç© İ",
      "æĺ¥ äºĭ",
      "è³ ¸",
      "æ¸ħ æºª",
      "åī ©",
      "çĽ¸ æĨ¶",
      "æ°´ æµģ",
      "æ°´ éĤĬ",
      "ä¹ĭ äºº",
      "åĨ Ĭ",
      "æľª æĩī",
      "è² ½",
      "é» ¨",
      "èĢģ æĪĲ",
      "æĨ İ",
      "æİ §",
      "æİ ī",
      "è©© åı¥",
      "åįĥ æŃ²",
      "ç¦ ¦",
      "ç¦ ĭ",
      "æĶ ¬",
      "æĶ ľ",
      "é³ ¬",
      "æĬ ¹",
      "èĳ Ń",
      "èĤ ĩ",
      "ç¯ ¤",
      "æµģ åħī",
      "éĿĴ éĿĴ",
      "éģł éģĬ",
      "èº« ä¸ĸ",
      "æĮ ĳ",
      "çī© çĲĨ",
      "é£Ľ é³¥",
      "çĻ¾ ä¸ĸ",
      "å®ī åı¯",
      "å®ī è¶³",
      "çĮ¶ åı¯",
      "çĮ¶ åľ¨",
      "èįī åłĤ",
      "æ½ ģ",
      "åĽĽ å£ģ",
      "çľŁ äºº",
      "æŃ² æĻļ",
      "å¾Į ä¸ĸ",
      "åħ© ä¸ī",
      "ç· ĩ",
      "ç· ļ",
      "éļ¨ åĪĨ",
      "åĿĲ çľĭ",
      "ç½ ħ",
      "éĮ Ĳ",
      "å¿½ çĦ¶",
      "çĳ ļ",
      "æ¦ ľ",
      "å¾® é¢¨",
      "èĪĪ äº¡",
      "å¤ª åı¤",
      "çª® éĢļ",
      "èŁ ¹",
      "èħ Ĳ",
      "è¼ī éħĴ",
      "å¨ ĳ",
      "ç£ ¯",
      "ç£ ´",
      "æĺŁ æĸĹ",
      "å¯Ħ èģ²",
      "çħĻ éľŀ",
      "éĺ ľ",
      "æª Ģ",
      "å½¢ éª¸",
      "æĶ¶ æĭ¾",
      "éµ Ŀ",
      "åĤ¾ èĵĭ",
      "ä»ĸ æĻĤ",
      "åĺĹ èģŀ",
      "è±Ĳ å¹´",
      "å°ģ ä¾¯",
      "æ¼ģ æ¨µ",
      "æµ© æŃĮ",
      "èļ Ĭ",
      "çī¹ åľ°",
      "é¢ ¯",
      "æģį æĥļ",
      "ç£Ĭ èĲ½",
      "çī¡ ä¸¹",
      "å´İ å¶",
      "ä¸ ŀ",
      "äº ¨",
      "ä¸į æĺĵ",
      "ä¸į å¿ĺ",
      "éģ ¨",
      "ä½ ĳ",
      "çĦ °",
      "æĸ Ľ",
      "æĸ Ł",
      "äºº ä¸ĸ",
      "éĸ ¶",
      "èĪ ª",
      "æĽ ·",
      "å±± åĥ§",
      "èª ¼",
      "å¤© é¢¨",
      "çľ ©",
      "å¦Ĥ å±±",
      "èĩª æĨĲ",
      "ç¾ ¸",
      "çĶŁ æ°ĳ",
      "å¾Ĺ å¤±",
      "è³ ¡",
      "çµ ±",
      "æ¸ħ ç§ĭ",
      "ä¸Ĭ æľī",
      "åī ²",
      "è¿ «",
      "è¼ ¦",
      "æ°´ æ¸ħ",
      "ä¹ĭ æīĢ",
      "æľĪ ä¸ĭ",
      "è¦ĭ ä¹ĭ",
      "èĪĩ å¤©",
      "èī ¾",
      "æŃ¸ å¿ĥ",
      "é«ĺ äºº",
      "é«ĺ æŀķ",
      "ä¸ī çĻ¾",
      "ä¸ī åĽĽ",
      "ç§ĭ æ°´",
      "ç§ĭ èģ²",
      "éĽ¨ èģ²",
      "å¼ ©",
      "èº ĭ",
      "è¬ Ĺ",
      "æ´ ½",
      "é³ ¯",
      "äº¦ å·²",
      "åħ¬ é¤ĺ",
      "æ¥ ¹",
      "ä¸ĸ æīĢ",
      "å¯Ĵ æļĳ",
      "çĮ ·",
      "èĤ ĸ",
      "æ¯ Ģ",
      "éĹ Ī",
      "åįĹ é¢¨",
      "å®¢ ä¾Ĩ",
      "é£Ľ ä¾Ĩ",
      "æľĿ éĻ½",
      "æĵ ĺ",
      "åįģ åĪĨ",
      "å¡µ ä¸ĸ",
      "æı ´",
      "åŁİ ä¸Ń",
      "èĵ ´",
      "æŃ² æŃ²",
      "ç° Ł",
      "å¾Į ä¾Ĩ",
      "æ»¿ çľ¼",
      "é¬ ±",
      "éĩİ èī²",
      "çķĻ å¾Ĺ",
      "æķħ å±±",
      "æ¹ĸ æµ·",
      "éĮ Ħ",
      "è½ ħ",
      "å¿½ å¿½",
      "çĳ ¤",
      "å¤ª èĻĽ",
      "å² ©",
      "æĦĽ åĲŁè©©",
      "èĴ¼ èĭĶ",
      "ç¶ĵ è¡Į",
      "ç¶ĵ ç¶¸",
      "ç¶ł éĻ°",
      "èĳĹ æĽ¸",
      "æĨĤ æĤ£",
      "æĴ Ĳ",
      "äº¤ æĥħ",
      "èł ħ",
      "éĳ Ħ",
      "ä¾Ŀ ä¾Ŀ",
      "è«¸ äºº",
      "æ§ ĭ",
      "åł± åľĭ",
      "ç¾İ äºº",
      "çĩĪ çģ«",
      "çĽĽ å¾·",
      "è¡° ç¿ģ",
      "è´ Ĭ",
      "æ¤ ½",
      "æ¤ Ĵ",
      "ä¸ĥ åįģ",
      "å¬ °",
      "ä¸ĺ å£ĳ",
      "é¡Į è©©",
      "è¡® è¡®",
      "æĺ¥ä¾Ĩ éĿŀæĺ¯",
      "ä¸īåįģ åħŃ",
      "çĢŁ çģĳ",
      "ç¬Ļ æŃĮ",
      "éĤĩ ä¾Ĩ",
      "åĹļ åĳ¼",
      "çİ² çĵı",
      "æĺ¥ä¾ĨéĿŀæĺ¯ æĦĽåĲŁè©©",
      "ä¸ ¸",
      "æĺ ĩ",
      "ä¸į åĩº",
      "ä¸į éĸĭ",
      "ä¸į è²ł",
      "å¹ ĥ",
      "çĽ Ĩ",
      "æĻ ¶",
      "ä¸Ģ æĸ¹",
      "ä¸Ģ å¿µ",
      "ä¸Ģ èĪ¬",
      "å¯ ĩ",
      "æĽ ¦",
      "çĦ¡ çĽ¡",
      "çĦ¡ è·¯",
      "çĦ¡ åĽł",
      "æľī éģº",
      "èª ¨",
      "èĬ »",
      "æĿ ĵ",
      "ä¾Ĩ å¾Ģ",
      "æĻĤ äºĭ",
      "æĹ¥ èĲ½",
      "èĩª æŃ¤",
      "ç§ «",
      "ä¸Ń å¿ĥ",
      "ä¸Ń å¤ľ",
      "ä¸Ń éĸĵ",
      "éĽ² éľŀ",
      "ç¾ ¶",
      "éļ ĭ",
      "è¨ Ĭ",
      "é£ Ī",
      "æĺ¥ èįī",
      "çŁ¥ æĪĳ",
      "ç¿ ¦",
      "èĭ Ĵ",
      "èĭ ŀ",
      "åī µ",
      "çĽ¸ éļ¨",
      "çĽ¸ å°ĭ",
      "æ°´ ä¸Ĭ",
      "æľĪ èī²",
      "æģ ¢",
      "é» Ľ",
      "ä¸ĭ æľī",
      "èĢģ æ¨¹",
      "èĢģ åĥ§",
      "é«ĺ ä¸ĭ",
      "å¡ Ĭ",
      "ä¸ī æĽ´",
      "æħ ³",
      "çĻ½ éĽª",
      "çĻ½ é·º",
      "èº ħ",
      "èª° äºº",
      "èª° è¨Ģ",
      "å¤ļ æĥħ",
      "ç©º èĩª",
      "èĳ £",
      "æĭ ĸ",
      "å¯Ĵ é£Ł",
      "å» ĵ",
      "é¤ ī",
      "çĮ ľ",
      "éĨ ħ",
      "å¤ľ ä¾Ĩ",
      "æ¿ «",
      "åĿ ³",
      "ç¯ ĭ",
      "èı °",
      "å¹³ æĹ¥",
      "è£ Ļ",
      "æ® Ĩ",
      "çĩ ¦",
      "éĿŀ åĲ¾",
      "åįĹ éĥŃ",
      "éĸĢ ä¸ĭ",
      "å®¢ åŃĲ",
      "çī© å¤ĸ",
      "éĸĭ åı£",
      "æ£ §",
      "å¹¾ çķª",
      "èįī èįī",
      "åĲ¾ å»¬",
      "çį¨ æľī",
      "ç· ¯",
      "çı ¾",
      "ç½ ķ",
      "åĮĹ å±±",
      "éº ½",
      "éģĬ äºº",
      "èŁ Ģ",
      "èŁ ĭ",
      "åıª åľ¨",
      "çł Ķ",
      "å¶ ¸",
      "è¹ ī",
      "è¹ Ĭ",
      "ç® ķ",
      "ç® Ĺ",
      "åĪ¥ æľī",
      "æĴ ŀ",
      "éĽ¢ é¨·",
      "çĢ Ŀ",
      "æĹ© æĻļ",
      "åľĴ æ±ł",
      "æª ¢",
      "å£¯ å¿ĥ",
      "å¹¸ æľī",
      "èŀ ¢",
      "æ·® ä¸Ĭ",
      "ä»ĸ å¹´",
      "åĻ ĵ",
      "æ¤ ¿",
      "ç¥ĸ å¸«",
      "éĮ¦ ç¹¡",
      "é£Ħ é£Ħ",
      "åª ¿",
      "éī ¢",
      "æ¬£ çĦ¶",
      "æ¬¡ ç¬¬",
      "æħİ åĭ¿",
      "äºĮä¸ī åŃĲ",
      "å©Ĩ å¨ĳ",
      "ç±ĥ è¼¿",
      "å´İå¶ ĩ",
      "äº ¹",
      "äº Ľ",
      "å¾ ½",
      "å® ĥ",
      "ä¸į èĳĹ",
      "ä¸į åİŃ",
      "å° İ",
      "åľ ľ",
      "èĩ §",
      "èĩ Ń",
      "éĸ ±",
      "ä¸Ģ äºº",
      "ä¸Ģ å¾ŀ",
      "ä¸Ģ éº¾",
      "ä¸Ģ æ®µ",
      "çĦ¡ çĪ²",
      "éĩ Ŀ",
      "çŁ Ĺ",
      "è¡ ¾",
      "èģ °",
      "èģ Ĩ",
      "éĻ ·",
      "å±± ç¿ģ",
      "çĻ ĸ",
      "å¤© å¿ĥ",
      "å¤© å£¤",
      "éł ½",
      "ä¾Ĩ èĢħ",
      "ä½ķ ä¼¼",
      "æĻĤ äºº",
      "æĻĤ æľī",
      "æĻĤ ä¾Ĩ",
      "æ± İ",
      "å¦Ĥ æ°´",
      "èĲ ¼",
      "èĲ ĥ",
      "èĩª ç¬ĳ",
      "åĽ ļ",
      "ä¸Ń å¤©",
      "çī Ī",
      "éĽ² æ·±",
      "éĽ² å¤ĸ",
      "ç¾ ¡",
      "è© °",
      "é¦ ®",
      "æ³ ®",
      "éļ Ī",
      "çĶŁ æŃ»",
      "æŃ¤ èªŀ",
      "ç¥ Ĳ",
      "å¾Ĺ ä¸Ģ",
      "æĺ¥ æŃ¸",
      "æĺ¥ éĽ¨",
      "çŁ¥ åĲĽ",
      "çŁ¥ å¹¾",
      "æĪĳ è¡Į",
      "çİ ķ",
      "çµ ¦",
      "æ¸ħ æ³ī",
      "å¿ĥ äºĭ",
      "ä¸Ĭ æĸ¹",
      "æ² ®",
      "æ² Ĩ",
      "åī ¡",
      "çĽ¸ å¿ĺ",
      "åĬ «",
      "åĬ Ķ",
      "æľª åı¯",
      "æľª æĽ¾",
      "è¦ĭ åĲĽ",
      "æĺ¯ æĻĤ",
      "é¡ °",
      "èĪĩ æĪĳ",
      "èĢģ å¤§",
      "æĺİ åłĤ",
      "æŃ¸ è·¯",
      "ä¸ī å±±",
      "ä¸ī åįģå¹´",
      "ç§ĭ åħī",
      "èĲ¬ å£ĳ",
      "æļ ¢",
      "æĨ ©",
      "åı¤ å¯º",
      "éĽ¨ éľ²",
      "åħ¶ äºº",
      "åħ¶ ä¸Ń",
      "è¥ Ħ",
      "èº Ķ",
      "çª Ī",
      "æīĢ å¾Ĺ",
      "èª° éģĵ",
      "èª° å¾©",
      "åĢ ©",
      "äº¦ çĦ¡",
      "åħ¬ åį¿",
      "å¤§ åľ°",
      "å» Ľ",
      "éĨ ´",
      "æ·± å±±",
      "å¤ľ åįĬ",
      "èĻķ å£«",
      "æ¬² çĽ¡",
      "æ¯ Ĺ",
      "æµģ èĲ½",
      "çĩ İ",
      "éĿŀ äºº",
      "éĸĢ æĪ¶",
      "æ¹ į",
      "è¾ ľ",
      "èº« å¾Į",
      "èĮ ¸",
      "åįģ èĲ¬",
      "çĥ ĺ",
      "æ£ Ĵ",
      "èĲ½ æľĪ",
      "èĲ½ èĲ½",
      "èŃ ī",
      "æ© Ĳ",
      "æµ· åħ§",
      "åĺ ¶",
      "åĽĽ é¡§",
      "åĦ ²",
      "åĦ Ł",
      "éĻ° æĻ´",
      "å°ı éĽ¨",
      "ç· Ĭ",
      "ç· ĺ",
      "å¤¢ å¯Ĳ",
      "ç± ©",
      "éļ¨ é¢¨",
      "ä½¿ ä¹ĭ",
      "æķħ åľĭ",
      "ç½ ĩ",
      "äºĶ å¹´",
      "äºĶ æĽ´",
      "äºĶ èī²",
      "ä¸Ķ åĸľ",
      "åĮĹ æľĽ",
      "é¨ ģ",
      "èĪĪ çĽ¡",
      "çĭ Ĺ",
      "èŁ Ĩ",
      "é¶ ¯",
      "ç¶ĵ å¹´",
      "æŀĿ éłŃ",
      "ç® ´",
      "æĨĤ åľĭ",
      "çĴ £",
      "æĻ¯ çī©",
      "æĸ¯ æĸĩ",
      "çĬ ĸ",
      "è«¸ åħ¬",
      "åľĸ çķ«",
      "æį ī",
      "åļ ¼",
      "å¯Ĥ å¯Ĥ",
      "éŀ ħ",
      "é£² éħĴ",
      "çīĽ ç¾Ĭ",
      "èģĬ èĩª",
      "çŀ °",
      "æľĢ å¥½",
      "ç©į éĽ¨",
      "åĶĲ èĻŀ",
      "é´» éµł",
      "éĩ£ éŃļ",
      "éĬĢ æ²³",
      "æ« ĵ",
      "è¤ Ĳ",
      "åĶ¯ æľī",
      "è¾Ľ èĭ¦",
      "èĺĨ èĬ±",
      "æľĶ é¢¨",
      "å¦» åŃĲ",
      "æ¢§ æ¡Ĳ",
      "æ¢¨ èĬ±",
      "çıĬ çĳļ",
      "èŃ¬ å¦Ĥ",
      "èŁĭ èŁĢ",
      "£ é«",
      "¹ éĿ",
      "å¤ Ķ",
      "éĽ ©",
      "åĲ ¸",
      "ä¸į çį¨",
      "ä¸į è¾Ń",
      "ä¸į çħ©",
      "ä¸į åıĹ",
      "ä¸į åģľ",
      "ä½ ĩ",
      "ä½ ļ",
      "å± ł",
      "å° ¸",
      "æĸ ¤",
      "éĸ ½",
      "ä¸Ģ æ°£",
      "ä¸Ģ ç¯Ģ",
      "ä¸Ģ çķª",
      "åŃ ½",
      "çĦ¡ å¡µ",
      "çĦ¡ åĬĽ",
      "çĦ¡ è¨Ī",
      "éĩ µ",
      "çĪ ª",
      "èĢ ¶",
      "èĢ Ĳ",
      "çŁ Ľ",
      "å±± ä¹ĭ",
      "æ¸ ©",
      "å¤© éģĵ",
      "æī ĺ",
      "æķ ¦",
      "æķ ı",
      "æķ ŀ",
      "å¦Ĥ è¨±",
      "åĭ ĥ",
      "æĹ¥ éķ·",
      "ä¸Ń åľĭ",
      "ä¸Ń åºŃ",
      "ä¸Ń å®µ",
      "éĽ² è»Ĭ",
      "éļ ¼",
      "éļ Ħ",
      "éļ ĺ",
      "è¨ Ŀ",
      "éľ ¹éĿ",
      "æŃ¤ çĶŁ",
      "æŃ¤ æ¨Ĥ",
      "é« »",
      "é« £é«",
      "æĺ¥ å¯Ĵ",
[...]
